<pad>	0
</s>	0
<unk>	0
<LOG_STMT>	0
▁(	-3.39306
▁)	-3.43818
▁	-3.7445
▁.	-3.82822
s	-3.86381
,	-4.01269
▁;	-4.0943
▁the	-4.10134
.	-4.28697
▁and	-4.49444
\	-4.503
x	-4.5177
▁to	-4.52266
▁,	-4.55131
▁a	-4.61002
▁of	-4.69112
▁{	-4.83767
▁}	-4.84285
▁in	-4.94209
.\	-4.97535
▁=	-5.10957
n	-5.15108
"	-5.18257
ing	-5.18485
▁is	-5.26316
▁"	-5.26581
2\	-5.31231
xe	-5.32456
▁for	-5.34067
80	-5.36104
d	-5.49687
_	-5.51227
-	-5.55698
▁you	-5.63237
▁public	-5.64451
▁new	-5.6578
▁return	-5.69818
▁with	-5.7128
'	-5.78502
▁that	-5.79098
▁on	-5.83512
▁b	-5.83599
t	-5.86937
ed	-5.8867
▁I	-5.90804
▁this	-5.90881
99	-5.93363
▁get	-5.95374
▁<	-5.97529
▁String	-5.97846
▁be	-5.97954
▁@	-5.99303
▁if	-6.00118
▁>	-6.00618
▁are	-6.04907
ly	-6.0727
▁your	-6.10226
y	-6.10455
▁it	-6.10948
e	-6.11899
▁as	-6.28271
▁void	-6.31176
▁or	-6.32405
▁from	-6.34884
▁at	-6.35114
▁The	-6.35799
▁null	-6.40534
▁have	-6.41431
▁can	-6.43555
9	-6.44674
▁will	-6.45612
▁+	-6.49991
▁by	-6.52955
▁e	-6.54855
:	-6.55326
▁c	-6.56238
▁was	-6.58415
▁an	-6.62315
▁Override	-6.63193
er	-6.63723
▁we	-6.64948
▁final	-6.67726
▁not	-6.72666
▁has	-6.73133
▁0	-6.78511
.'	-6.8026
▁p	-6.80513
)	-6.80766
▁all	-6.82957
▁our	-6.8378
▁set	-6.84393
c	-6.87244
2	-6.88326
▁1	-6.88916
/	-6.92474
▁int	-6.92588
▁A	-6.93631
▁m	-6.95151
▁[	-6.95721
a	-6.95991
m	-6.96446
▁out	-6.97197
▁s	-6.98698
▁i	-6.99779
▁throws	-7.00699
▁f	-7.01241
▁so	-7.01944
1	-7.0321
▁more	-7.04004
▁]	-7.04592
re	-7.04652
▁t	-7.0499
▁their	-7.06198
Exception	-7.06724
▁add	-7.08479
\'	-7.09822
▁one	-7.11417
▁but	-7.11815
es	-7.12391
▁do	-7.14
nThe	-7.16123
!	-7.16288
▁==	-7.16657
▁class	-7.17329
▁up	-7.17449
▁my	-7.1813
w	-7.18153
▁re	-7.20896
▁time	-7.21626
▁about	-7.22668
▁:	-7.24439
▁Test	-7.25251
▁they	-7.26768
▁also	-7.27174
▁which	-7.28129
▁when	-7.29612
al	-7.2983
on	-7.30451
Type	-7.32636
▁other	-7.33052
▁S	-7.34969
▁T	-7.35195
▁assertEquals	-7.35869
th	-7.3606
▁value	-7.36295
▁create	-7.36435
▁d	-7.38111
▁any	-7.38359
Id	-7.38546
▁We	-7.39644
▁like	-7.39655
b	-7.39898
▁-	-7.40054
▁make	-7.41544
xa	-7.42221
▁C	-7.44228
▁he	-7.44882
▁!=	-7.45569
▁who	-7.45961
▁List	-7.46836
▁B	-7.47271
▁It	-7.47448
▁w	-7.48541
▁some	-7.50247
▁been	-7.51352
▁test	-7.52066
!\	-7.52148
▁result	-7.52765
▁his	-7.53921
▁true	-7.54158
▁long	-7.54704
▁P	-7.54942
S	-7.55073
▁boolean	-7.55144
▁_	-7.55491
▁work	-7.556
r	-7.56208
▁help	-7.57291
▁private	-7.57342
ur	-7.57871
▁2	-7.59285
▁over	-7.5965
Name	-7.59859
▁name	-7.59944
▁g	-7.60875
xc	-7.6138
▁static	-7.62024
?	-7.62447
▁us	-7.62524
▁false	-7.62585
▁than	-7.63632
▁M	-7.64022
▁just	-7.64046
▁use	-7.64152
▁Object	-7.64275
▁what	-7.64525
ve	-7.64669
h	-7.64962
able	-7.65172
▁else	-7.65496
;	-7.66182
▁O	-7.66361
▁there	-7.6646
."	-7.66746
▁them	-7.66817
▁how	-7.6772
▁no	-7.6814
▁Exception	-7.68658
▁first	-7.68719
▁me	-7.68754
▁This	-7.68905
▁put	-7.68995
▁into	-7.69286
93	-7.69336
se	-7.72328
ers	-7.72616
▁would	-7.7338
?\	-7.73655
▁append	-7.74157
▁K	-7.75474
el	-7.75709
▁her	-7.76034
▁try	-7.76093
▁see	-7.76152
f	-7.77603
▁through	-7.77879
▁most	-7.77989
▁were	-7.7885
▁?	-7.79426
o	-7.79716
▁well	-7.80438
▁throw	-7.8072
▁go	-7.80988
▁home	-7.81995
▁size	-7.82265
▁find	-7.82292
ll	-7.82884
▁need	-7.83258
▁its	-7.84355
A	-7.84517
▁had	-7.85053
ful	-7.85091
▁people	-7.85373
▁In	-7.85804
▁only	-7.86289
3	-7.87603
▁You	-7.87837
▁3	-7.89078
▁com	-7.89102
k	-7.90397
▁de	-7.90947
▁N	-7.91277
▁way	-7.91421
▁&	-7.91492
▁F	-7.91676
▁R	-7.92021
▁best	-7.92276
▁data	-7.92283
▁may	-7.92412
xb	-7.92432
i	-7.92955
▁H	-7.93049
▁E	-7.93655
▁key	-7.93706
ion	-7.94412
▁type	-7.94615
▁should	-7.94825
▁design	-7.95024
▁after	-7.95291
▁under	-7.96294
ous	-7.96862
Value	-7.97109
▁show	-7.97418
List	-7.97514
▁h	-7.97727
▁these	-7.9787
or	-7.97969
▁year	-7.98049
Context	-7.98266
▁very	-7.98333
▁two	-7.99149
▁many	-7.99227
▁know	-8.00253
▁case	-8.00769
in	-8.01226
▁service	-8.01394
day	-8.02158
l	-8.03099
▁business	-8.03547
▁years	-8.03555
Service	-8.04133
▁now	-8.04467
▁W	-8.04702
▁want	-8.04874
▁where	-8.0489
▁build	-8.05635
▁per	-8.05843
▁back	-8.06252
▁!	-8.06468
▁every	-8.068
nI	-8.0757
▁start	-8.07621
love	-8.07769
▁D	-8.08001
▁good	-8.08488
▁next	-8.08534
▁r	-8.0914
▁&&	-8.0921
The	-8.0973
▁Ch	-8.10056
▁high	-8.10145
▁last	-8.10913
uch	-8.11256
▁while	-8.11263
▁equals	-8.11308
▁day	-8.11439
▁great	-8.11768
▁L	-8.11863
one	-8.13236
C	-8.13889
▁take	-8.14505
▁even	-8.14574
▁information	-8.14716
▁right	-8.15091
▁catch	-8.15184
▁protected	-8.15204
▁context	-8.15301
8	-8.15632
▁she	-8.15668
▁Map	-8.15765
Request	-8.15975
▁list	-8.15982
▁sai	-8.16481
Data	-8.17376
ies	-8.17456
▁offer	-8.17515
made	-8.17982
▁toString	-8.18771
Key	-8.18951
▁length	-8.19153
▁come	-8.19246
▁ch	-8.19311
▁G	-8.19456
D	-8.19666
▁system	-8.19738
ic	-8.20164
ation	-8.20278
▁here	-8.20405
▁look	-8.20458
Map	-8.20827
▁If	-8.20948
▁fe	-8.21086
3\	-8.21507
▁place	-8.21537
▁v	-8.21611
▁assertThat	-8.21928
▁request	-8.21947
▁could	-8.22066
▁V	-8.22265
▁before	-8.22272
▁He	-8.22522
▁end	-8.22959
▁used	-8.23392
▁4	-8.23922
id	-8.24027
▁free	-8.24102
L	-8.24804
xperience	-8.24934
▁Assert	-8.2499
▁week	-8.25325
p	-8.25341
▁life	-8.2538
▁k	-8.25447
▁part	-8.25493
▁such	-8.25737
To	-8.25825
le	-8.26352
Config	-8.26451
▁un	-8.26755
▁check	-8.26918
▁world	-8.27604
▁don	-8.27679
▁5	-8.27756
4	-8.27909
▁area	-8.28016
Builder	-8.2887
▁10	-8.28873
Info	-8.29091
I	-8.29258
▁co	-8.29872
▁->	-8.30307
▁available	-8.30468
▁team	-8.30722
▁event	-8.30843
▁state	-8.31659
▁o	-8.3186
ch	-8.33046
ish	-8.33136
6	-8.33328
▁car	-8.3339
ine	-8.33414
▁expected	-8.33467
▁game	-8.34038
ary	-8.34254
ive	-8.34283
▁J	-8.34428
▁each	-8.34507
ever	-8.34661
hose	-8.35007
com	-8.35138
g	-8.35396
▁response	-8.36548
▁process	-8.36914
0\	-8.37156
▁because	-8.3762
▁file	-8.37816
ate	-8.37856
Node	-8.37998
B	-8.38297
▁play	-8.38403
▁read	-8.3844
),	-8.39276
▁care	-8.39488
land	-8.39597
▁IOException	-8.39935
ry	-8.39939
▁off	-8.40661
▁$	-8.40685
▁For	-8.40925
▁around	-8.41147
en	-8.41273
▁own	-8.41948
▁super	-8.41954
).	-8.41986
Factory	-8.42112
▁client	-8.42355
ID	-8.42546
▁market	-8.43272
▁New	-8.43385
▁sb	-8.43426
think	-8.43952
File	-8.44221
▁down	-8.44319
%	-8.44456
▁company	-8.44502
With	-8.44568
▁19	-8.44657
(	-8.44662
▁l	-8.44714
▁found	-8.44922
▁en	-8.45206
▁being	-8.45555
ce	-8.45598
▁Integer	-8.45599
ist	-8.45623
ar	-8.45656
▁different	-8.45946
▁using	-8.46134
0	-8.46289
Configuration	-8.46398
ts	-8.46654
▁services	-8.47085
▁map	-8.47104
▁getName	-8.47155
▁give	-8.47537
▁support	-8.47606
st	-8.48083
▁provide	-8.48151
94	-8.48237
nA	-8.48388
▁say	-8.48433
▁br	-8.48996
▁both	-8.49363
▁then	-8.49482
Response	-8.50094
▁U	-8.50167
▁water	-8.50435
man	-8.50453
What	-8.50481
▁target	-8.51054
ia	-8.51145
Manager	-8.51189
▁assertTrue	-8.51299
Result	-8.51842
▁And	-8.52
▁page	-8.52102
nWe	-8.52273
▁id	-8.52311
▁plan	-8.52542
▁current	-8.52618
ton	-8.52788
nThis	-8.52827
▁keep	-8.52941
Path	-8.52984
▁local	-8.5314
▁++	-8.53625
▁user	-8.53697
▁close	-8.5375
▁con	-8.54305
ood	-8.54427
▁message	-8.54541
▁number	-8.54998
▁run	-8.55235
T	-8.5543
▁family	-8.55715
▁Ho	-8.56017
ian	-8.56188
▁call	-8.56215
▁project	-8.56333
▁break	-8.56685
um	-8.56711
ng	-8.56739
▁same	-8.56785
▁quality	-8.56942
▁top	-8.57097
▁including	-8.57299
▁really	-8.57302
Event	-8.5758
▁Re	-8.57722
out	-8.57853
▁group	-8.58028
▁builder	-8.58071
test	-8.5842
▁j	-8.58508
to	-8.59096
String	-8.5939
▁node	-8.59423
Count	-8.59445
▁model	-8.59631
▁between	-8.59901
▁Th	-8.59942
▁visit	-8.60414
ity	-8.60496
ten	-8.60669
Message	-8.60708
In	-8.6071
ant	-8.60858
▁To	-8.60951
ance	-8.61041
▁full	-8.61049
age	-8.61251
an	-8.6132
▁write	-8.6136
▁input	-8.61471
▁field	-8.62008
▁must	-8.62169
du	-8.622
▁post	-8.62449
▁still	-8.62472
Class	-8.62607
him	-8.62822
▁sure	-8.62858
▁live	-8.6288
▁order	-8.62936
▁too	-8.63093
98	-8.63211
▁am	-8.63712
ment	-8.63884
joy	-8.64096
▁entry	-8.64309
Group	-8.64336
▁session	-8.64354
▁st	-8.64453
▁dis	-8.64653
▁lot	-8.64703
▁||	-8.64714
▁school	-8.64924
▁always	-8.65342
▁light	-8.6553
▁query	-8.65571
▁Mar	-8.65688
ath	-8.65834
▁byte	-8.65839
▁online	-8.66148
way	-8.66276
▁index	-8.66583
▁path	-8.66917
▁open	-8.66931
▁source	-8.6694
u	-8.67193
▁website	-8.67256
Test	-8.67274
State	-8.67459
Object	-8.67516
us	-8.67634
▁during	-8.67736
Model	-8.68263
Index	-8.68296
▁three	-8.68331
▁assert	-8.68372
▁Ro	-8.68544
nIn	-8.68673
▁org	-8.69966
▁grow	-8.70226
long	-8.70285
v	-8.7032
000	-8.70413
▁site	-8.70429
P	-8.705
▁instanceof	-8.70529
▁6	-8.70559
less	-8.70711
▁though	-8.71082
▁System	-8.71198
For	-8.7124
ne	-8.71423
*	-8.71591
▁update	-8.7214
▁vari	-8.72727
▁remove	-8.72746
Entry	-8.72821
▁pro	-8.72909
▁bea	-8.72925
▁little	-8.72999
▁table	-8.73321
▁As	-8.73719
▁special	-8.7404
▁Co	-8.74062
▁products	-8.74156
▁double	-8.74286
▁cr	-8.74382
▁line	-8.74457
▁real	-8.74531
up	-8.74642
Set	-8.7485
▁File	-8.75193
▁body	-8.75236
▁today	-8.75271
▁without	-8.75415
▁Long	-8.75491
▁property	-8.75984
▁small	-8.76028
▁job	-8.76105
▁old	-8.76411
▁important	-8.76524
M	-8.76592
ge	-8.76711
▁power	-8.76784
▁does	-8.76798
▁So	-8.76894
▁fee	-8.77023
▁product	-8.77078
You	-8.77335
▁complete	-8.77374
te	-8.78959
▁form	-8.78965
as	-8.79132
▁*	-8.79222
▁room	-8.79247
▁Y	-8.79622
▁count	-8.79625
ness	-8.79626
▁looking	-8.80223
▁children	-8.80261
▁contains	-8.80263
tter	-8.80282
is	-8.81122
▁within	-8.81152
▁Be	-8.81314
▁wo	-8.81363
▁since	-8.81405
▁working	-8.81429
Field	-8.81583
Element	-8.81619
▁book	-8.81892
▁course	-8.819
rofessional	-8.81996
▁able	-8.82031
▁mo	-8.82248
▁Go	-8.82257
▁things	-8.82308
America	-8.82337
E	-8.82347
▁But	-8.82588
son	-8.82909
▁All	-8.83006
fect	-8.83288
night	-8.83331
▁content	-8.83411
Query	-8.83667
Impl	-8.83708
▁options	-8.83808
▁students	-8.83833
▁idea	-8.83939
▁range	-8.84013
▁clear	-8.84473
5	-8.84475
▁config	-8.85036
nIf	-8.85235
▁contact	-8.85762
▁change	-8.85863
▁format	-8.86088
▁mock	-8.86384
Resource	-8.86463
▁needs	-8.86531
▁Class	-8.8655
▁ex	-8.86628
▁getValue	-8.86635
z	-8.86683
And	-8.86716
▁java	-8.86722
▁8	-8.8674
▁"/	-8.86834
Client	-8.86898
▁include	-8.87281
▁health	-8.87307
▁child	-8.87463
law	-8.87471
▁default	-8.87946
▁another	-8.8797
door	-8.88049
▁7	-8.88204
room	-8.88247
▁view	-8.88406
▁program	-8.89019
▁something	-8.89268
▁days	-8.89307
▁search	-8.89393
▁personal	-8.89419
X	-8.89511
▁left	-8.89577
▁short	-8.89772
▁Set	-8.89938
▁second	-8.8997
▁20	-8.90002
▁ArrayList	-8.90619
▁price	-8.90638
and	-8.90831
▁air	-8.91
▁interest	-8.91017
Status	-8.91134
▁She	-8.91195
Entity	-8.91276
▁access	-8.91295
▁large	-8.91325
Properties	-8.9136
ember	-8.91473
uti	-8.915
▁did	-8.91516
▁parse	-8.91758
V	-8.91778
▁wor	-8.91971
▁hand	-8.92068
ash	-8.92095
F	-8.92657
Provider	-8.92739
Table	-8.92769
▁filter	-8.92774
▁video	-8.92861
▁pre	-8.92936
▁continue	-8.92995
▁never	-8.93109
▁please	-8.93212
▁got	-8.93315
oney	-8.93348
Size	-8.93672
ture	-8.93812
▁develop	-8.93931
▁learn	-8.93932
▁side	-8.93953
food	-8.94074
▁method	-8.94141
name	-8.94706
▁eas	-8.94749
There	-8.95102
NAME	-8.9527
Time	-8.95324
easy	-8.95483
ical	-8.95516
▁art	-8.9595
ship	-8.9643
▁hard	-8.96456
▁head	-8.96651
▁level	-8.96948
▁fun	-8.97067
▁might	-8.97092
▁practi	-8.97261
stry	-8.9732
ling	-8.97323
ight	-8.97557
From	-8.97572
▁community	-8.97583
▁less	-8.97733
Property	-8.97992
rist	-8.98184
1"	-8.98283
▁apply	-8.98603
▁St	-8.98603
Handler	-8.98648
ter	-8.99154
▁house	-8.99206
▁become	-8.99227
▁main	-8.99334
Filter	-8.99715
▁together	-8.9973
▁far	-8.99858
K	-9.00092
▁version	-9.00097
▁person	-9.0018
▁office	-9.0026
▁cost	-9.00306
▁required	-9.00361
R	-9.00708
▁until	-9.00732
▁values	-9.00933
▁Da	-9.01269
ety	-9.01444
▁deal	-9.01591
▁No	-9.01592
the	-9.01842
ting	-9.01879
://	-9.02036
=	-9.02081
going	-9.02242
▁Vi	-9.02257
▁stream	-9.02279
▁app	-9.02291
Utils	-9.023
ster	-9.02447
ustr	-9.02479
N	-9.02615
ley	-9.02705
▁below	-9.02877
]	-9.03465
▁hop	-9.03551
▁min	-9.03651
▁With	-9.03712
▁space	-9.03751
Version	-9.03899
▁material	-9.03949
▁possible	-9.04001
ir	-9.04017
▁development	-9.04174
▁sub	-9.04511
self	-9.0452
nIt	-9.04653
cross	-9.0473
▁item	-9.05042
no	-9.05053
▁mak	-9.05203
▁results	-9.05227
▁obj	-9.05261
▁based	-9.05313
Item	-9.05403
▁wh	-9.05501
et	-9.05917
▁color	-9.06138
▁isEmpty	-9.06316
ice	-9.06354
▁record	-9.06463
Util	-9.06469
ark	-9.06479
▁original	-9.06495
▁point	-9.06537
oil	-9.0668
▁Lo	-9.06757
ily	-9.06888
▁research	-9.07074
O	-9.07195
it	-9.07376
▁win	-9.07458
7	-9.07487
▁times	-9.07495
▁po	-9.07509
H	-9.07712
▁save	-9.07966
▁text	-9.08025
den	-9.08033
▁future	-9.08055
▁date	-9.08093
▁verify	-9.08112
G	-9.0814
▁12	-9.08222
resident	-9.08498
▁ensure	-9.08774
ew	-9.08869
shop	-9.08874
▁Do	-9.08948
▁hot	-9.0898
ball	-9.09463
ard	-9.10117
▁Car	-9.10138
▁photo	-9.10198
▁30	-9.10526
time	-9.10533
University	-9.10549
ach	-9.10731
User	-9.10943
▁ad	-9.11228
org	-9.11248
▁building	-9.113
▁past	-9.11406
▁action	-9.1179
▁clean	-9.11848
▁Can	-9.1212
▁address	-9.12172
cul	-9.1219
▁again	-9.1234
▁kind	-9.12995
ury	-9.1302
end	-9.13053
▁Su	-9.13066
▁2018	-9.13221
eason	-9.13249
▁store	-9.13309
▁base	-9.13403
▁execute	-9.13425
▁let	-9.13452
est	-9.13752
▁non	-9.13867
▁features	-9.1393
▁15	-9.13999
▁big	-9.14097
▁apache	-9.142
▁done	-9.14341
▁quick	-9.14437
▁total	-9.14449
▁object	-9.14548
▁turn	-9.14553
▁increase	-9.14942
▁X	-9.14988
▁buy	-9.1503
W	-9.15056
▁code	-9.15139
Cache	-9.15302
▁review	-9.15345
▁getId	-9.15576
▁properties	-9.1564
▁single	-9.15687
▁/	-9.15747
▁share	-9.15834
▁simple	-9.15835
j	-9.15925
ra	-9.16074
Definition	-9.16337
▁vi	-9.16501
▁picture	-9.16733
▁server	-9.16854
▁mean	-9.16946
ina	-9.17073
▁skill	-9.1716
▁already	-9.17335
▁sta	-9.17349
▁customers	-9.1742
▁print	-9.17458
ated	-9.17465
By	-9.17491
side	-9.17597
▁bel	-9.17864
ver	-9.17881
▁su	-9.17934
That	-9.18041
▁control	-9.18133
▁My	-9.18255
▁sho	-9.18305
▁having	-9.18397
▁unique	-9.18487
▁position	-9.18682
▁account	-9.18715
▁country	-9.18795
▁parent	-9.18828
▁travel	-9.19063
▁finally	-9.19135
echnology	-9.1929
Record	-9.1964
▁element	-9.19743
ty	-9.19751
▁against	-9.19757
▁status	-9.2028
▁Ma	-9.20331
▁send	-9.20337
ompanies	-9.20384
am	-9.20654
hair	-9.2066
fort	-9.20736
▁connection	-9.2079
J	-9.20856
ather	-9.20879
▁image	-9.2093
▁resource	-9.20978
▁18	-9.21086
Y	-9.21129
▁email	-9.21304
everal	-9.21318
This	-9.21353
▁near	-9.21461
▁members	-9.21772
▁social	-9.21785
aking	-9.21788
▁thing	-9.21927
▁pay	-9.22003
ier	-9.22142
▁present	-9.22154
Instance	-9.2216
line	-9.22206
Your	-9.22302
ent	-9.2231
Action	-9.22413
old	-9.22416
▁style	-9.22487
▁city	-9.22535
▁When	-9.22692
ists	-9.2286
▁hours	-9.22884
▁ac	-9.22981
▁thenReturn	-9.23086
▁mus	-9.23178
▁minutes	-9.23261
▁goal	-9.2353
▁standard	-9.2353
co	-9.23587
▁rate	-9.23599
ial	-9.237
▁given	-9.23856
▁la	-9.24008
▁bar	-9.24313
▁error	-9.24337
my	-9.24345
▁wide	-9.24394
▁max	-9.2456
coming	-9.24637
ence	-9.24723
▁gi	-9.24821
▁talk	-9.24947
▁brand	-9.24978
▁getClass	-9.25127
▁four	-9.25145
▁reg	-9.25191
▁bit	-9.25237
On	-9.25322
▁IllegalArgument	-9.25492
na	-9.2554
▁""	-9.25603
▁xml	-9.25605
▁output	-9.25768
▁select	-9.2577
▁web	-9.25788
▁land	-9.25945
▁report	-9.25951
▁entity	-9.25953
Options	-9.26058
&	-9.26069
▁Collection	-9.26111
▁str	-9.26495
▁log	-9.26496
Source	-9.26552
▁walk	-9.2656
▁delete	-9.2656
▁100	-9.26623
▁application	-9.26936
▁benefit	-9.26995
▁getting	-9.27007
...	-9.27038
▁click	-9.27219
▁feature	-9.27249
Expression	-9.27431
▁customer	-9.27483
il	-9.27587
ally	-9.27623
nO	-9.27627
stand	-9.27659
Parameter	-9.27821
▁means	-9.27901
Date	-9.28034
Page	-9.28182
▁performance	-9.28277
▁sea	-9.28292
omen	-9.2844
▁ga	-9.28511
▁training	-9.28553
▁provides	-9.28573
▁inve	-9.28607
▁low	-9.28668
ational	-9.28981
Metadata	-9.29115
▁assertNotNull	-9.2923
Method	-9.29283
air	-9.29348
▁actual	-9.2951
▁guid	-9.29707
▁started	-9.29733
itche	-9.29895
Of	-9.29972
▁specific	-9.29986
▁meet	-9.30048
▁questions	-9.30247
ank	-9.30272
amp	-9.3034
Constants	-9.30352
▁Boolean	-9.30458
▁stop	-9.30866
▁location	-9.30889
▁move	-9.30931
at	-9.30995
▁management	-9.31031
ust	-9.31056
▁gar	-9.31216
eat	-9.31223
ual	-9.31341
▁wall	-9.31355
▁consider	-9.3145
South	-9.31545
▁Ju	-9.31587
port	-9.31644
▁De	-9.31649
▁enough	-9.31741
▁Le	-9.3176
▁study	-9.31805
▁hashCode	-9.3185
nov	-9.32022
▁liv	-9.32277
ught	-9.32315
▁collection	-9.32352
▁major	-9.32384
▁receive	-9.32421
ism	-9.32493
▁ever	-9.32624
▁Unit	-9.32699
▁row	-9.32716
Server	-9.32765
▁exc	-9.32963
▁month	-9.32994
▁partner	-9.33007
▁region	-9.33092
Listener	-9.33668
▁La	-9.33685
▁copy	-9.33685
rit	-9.33699
▁friends	-9.33769
▁hear	-9.33877
urther	-9.33948
▁called	-9.34223
▁match	-9.34311
▁story	-9.34327
ating	-9.34445
▁instance	-9.34501
▁lead	-9.34762
▁staff	-9.3494
▁US	-9.35014
▁member	-9.35088
▁task	-9.35137
▁choose	-9.3521
▁cache	-9.35546
Text	-9.35547
ol	-9.3566
cy	-9.35679
gan	-9.35727
▁natural	-9.35779
▁gu	-9.35792
▁Sa	-9.35806
certain	-9.35937
▁problem	-9.35944
▁Pa	-9.35951
ities	-9.35973
▁op	-9.36044
▁role	-9.36113
▁events	-9.3612
Connection	-9.36125
="	-9.36185
ms	-9.36257
▁2019	-9.36422
▁flow	-9.36446
▁strong	-9.36714
▁tra	-9.36757
Error	-9.36839
Token	-9.37015
▁man	-9.37018
School	-9.37313
ld	-9.3739
▁network	-9.37579
ium	-9.37608
▁education	-9.37651
▁example	-9.3779
Column	-9.37841
lent	-9.37883
▁step	-9.37883
▁bed	-9.3794
▁once	-9.37944
▁ask	-9.38014
de	-9.38025
▁items	-9.38076
▁drive	-9.38154
▁media	-9.38167
▁created	-9.38168
▁floor	-9.38215
▁kid	-9.38225
▁load	-9.38379
▁white	-9.38382
▁safe	-9.38456
▁details	-9.38499
ensive	-9.38529
Schema	-9.38572
▁yet	-9.38583
▁amount	-9.38841
nFor	-9.38954
Array	-9.38955
ago	-9.3905
▁effective	-9.39192
▁State	-9.39277
▁card	-9.39283
▁fan	-9.39386
▁extends	-9.3964
Content	-9.39649
ana	-9.39774
ney	-9.39926
▁film	-9.39995
ible	-9.40199
Helper	-9.40208
▁known	-9.4039
▁clients	-9.40423
▁engine	-9.40496
▁security	-9.40498
North	-9.40825
Operation	-9.40836
All	-9.40843
▁ctx	-9.40861
▁Builder	-9.40934
▁months	-9.40957
Mode	-9.41021
▁document	-9.41051
▁City	-9.41059
mong	-9.41062
▁series	-9.41064
▁cannot	-9.41089
Store	-9.41135
▁fire	-9.41155
▁tech	-9.41171
ward	-9.41177
▁11	-9.41195
▁::	-9.41297
▁Mo	-9.41343
Stream	-9.41395
ative	-9.41423
▁leader	-9.41562
▁everything	-9.41686
go	-9.41691
▁reason	-9.41811
▁Mi	-9.419
[	-9.41947
▁following	-9.4196
▁buffer	-9.42014
▁Ha	-9.42078
▁common	-9.42089
▁di	-9.42093
▁whole	-9.42151
▁join	-9.42165
ions	-9.42323
▁tell	-9.42459
Task	-9.42464
away	-9.42495
▁Z	-9.42577
ake	-9.42589
▁heart	-9.42597
▁begin	-9.4263
▁above	-9.42679
Code	-9.4275
▁Dr	-9.428
▁switch	-9.42946
▁Bo	-9.42978
▁At	-9.42988
▁fit	-9.43153
▁eye	-9.43251
▁An	-9.43267
▁extra	-9.43307
key	-9.43329
articular	-9.43334
ow	-9.434
dding	-9.43401
wards	-9.4341
▁front	-9.43483
▁due	-9.43546
▁issues	-9.43547
No	-9.43584
▁others	-9.4364
▁doesn	-9.43919
▁least	-9.44006
lves	-9.44014
▁sound	-9.44055
▁treatment	-9.44057
alia	-9.44156
▁purchase	-9.44185
▁Al	-9.44198
Session	-9.44218
▁paper	-9.44229
ift	-9.44304
ump	-9.44332
▁focus	-9.44363
John	-9.44522
ham	-9.44577
ork	-9.44616
▁sa	-9.44629
ab	-9.44639
▁addition	-9.44662
Attribute	-9.44707
▁added	-9.44709
▁exp	-9.44933
▁Optional	-9.4501
▁allow	-9.45089
>	-9.45172
▁environment	-9.45206
nHo	-9.45255
▁StringBuilder	-9.45327
▁2017	-9.45338
ually	-9.45372
▁phone	-9.45386
▁located	-9.45603
▁general	-9.4561
▁early	-9.45611
▁includes	-9.45639
▁additional	-9.45691
▁latest	-9.45796
▁Ra	-9.45987
▁One	-9.45988
▁age	-9.46109
light	-9.46181
builder	-9.46182
special	-9.46259
▁exception	-9.4636
Container	-9.4639
get	-9.46403
▁success	-9.46524
▁cut	-9.4666
gar	-9.46671
▁Path	-9.46675
▁res	-9.46696
▁link	-9.46705
▁16	-9.46711
We	-9.46712
▁handle	-9.46733
▁24	-9.46842
cade	-9.46909
▁50	-9.46983
ul	-9.47008
▁charge	-9.47052
▁|	-9.47207
▁register	-9.474
▁download	-9.47451
▁writer	-9.47472
state	-9.47474
▁Ap	-9.47522
les	-9.47534
▁function	-9.47572
▁Je	-9.47599
▁fast	-9.47629
ieve	-9.4774
ike	-9.4804
▁assertFalse	-9.48071
View	-9.48166
▁energy	-9.48169
by	-9.48205
▁getType	-9.48416
▁tax	-9.48456
▁ready	-9.48631
Function	-9.48719
nia	-9.4885
▁face	-9.48887
ise	-9.48899
▁watch	-9.4894
▁bo	-9.48977
▁enter	-9.48988
▁cover	-9.49228
▁history	-9.49401
Url	-9.49461
usic	-9.49469
▁rule	-9.49506
▁expect	-9.49569
▁collect	-9.49648
Bean	-9.49787
Address	-9.49792
▁column	-9.49811
▁Service	-9.49878
io	-9.49923
▁option	-9.49931
▁May	-9.49936
▁array	-9.50071
▁software	-9.50132
TYPE	-9.5026
ream	-9.50359
Z	-9.50388
Center	-9.50492
▁--	-9.50512
▁fact	-9.50513
▁storage	-9.5052
As	-9.50528
▁follow	-9.50575
▁pass	-9.50657
▁skin	-9.50666
ized	-9.50936
▁provided	-9.50946
▁simpl	-9.50955
▁custom	-9.51042
▁Collections	-9.51106
▁milli	-9.51127
▁Or	-9.51154
ficial	-9.51154
1\	-9.51237
mind	-9.51261
▁Bar	-9.51303
onder	-9.51371
ors	-9.51409
▁io	-9.51413
Just	-9.51553
www	-9.51667
+	-9.51705
Command	-9.51724
▁args	-9.51756
▁HashMap	-9.5186
▁five	-9.51876
▁knowledge	-9.51936
▁Node	-9.52067
▁Arrays	-9.52111
▁human	-9.52123
▁On	-9.52263
▁port	-9.52299
▁actually	-9.5236
ril	-9.5236
▁info	-9.52439
▁excel	-9.52467
▁took	-9.52477
▁url	-9.52645
ada	-9.52662
▁heat	-9.52679
▁currently	-9.52736
▁Fe	-9.5289
ks	-9.52938
ure	-9.52944
▁sign	-9.53005
anks	-9.53052
▁valueOf	-9.53077
▁individual	-9.53082
▁works	-9.53345
▁risk	-9.53349
▁black	-9.53474
▁meeting	-9.53544
5\	-9.53614
wn	-9.53777
▁happen	-9.54091
of	-9.54098
8\	-9.54302
▁came	-9.54516
Document	-9.54531
rew	-9.54542
▁didn	-9.54546
▁pe	-9.54561
gue	-9.54658
Row	-9.54819
▁char	-9.54869
▁After	-9.5489
▁decision	-9.54954
mas	-9.55212
▁users	-9.55258
▁Jo	-9.55476
pproach	-9.55502
▁getKey	-9.55535
▁exper	-9.5558
▁active	-9.55602
@	-9.55796
nAs	-9.55813
rs	-9.56016
nTo	-9.56079
Here	-9.56095
▁center	-9.5615
▁park	-9.56202
own	-9.56275
▁ste	-9.5642
▁forward	-9.56538
▁opportunit	-9.56555
head	-9.56623
▁World	-9.56715
▁appear	-9.56724
▁answer	-9.5683
▁root	-9.56868
▁financial	-9.56975
ud	-9.57088
▁Date	-9.57099
▁device	-9.57186
▁serve	-9.57197
▁host	-9.57207
▁Home	-9.57277
▁25	-9.57427
▁Br	-9.57806
▁challenge	-9.57854
▁rest	-9.57969
▁release	-9.57974
▁validate	-9.57974
▁bill	-9.58034
▁effort	-9.58191
ior	-9.5825
http	-9.5829
foo	-9.5843
▁fail	-9.58467
▁le	-9.58486
▁token	-9.58649
▁accept	-9.5873
▁Type	-9.58752
▁period	-9.58834
▁Group	-9.58947
rning	-9.59098
▁needed	-9.59154
cious	-9.59164
▁iterator	-9.59213
▁reader	-9.59285
▁amaz	-9.59457
Number	-9.59502
▁etc	-9.59546
Reference	-9.59619
4\	-9.59678
▁decide	-9.59743
▁getMessage	-9.59795
▁seen	-9.59848
ha	-9.59939
ie	-9.60122
Spec	-9.60124
urs	-9.60204
ka	-9.60222
▁condition	-9.60251
▁configuration	-9.60261
▁isEqualTo	-9.60371
▁half	-9.60401
▁computer	-9.60551
▁quit	-9.60554
▁choice	-9.6063
type	-9.60641
▁subject	-9.60697
▁Art	-9.60741
▁2016	-9.6078
▁Please	-9.60783
▁High	-9.6084
▁equipment	-9.60863
Parameters	-9.60928
▁later	-9.60975
▁lu	-9.60989
▁Air	-9.61025
▁getInstance	-9.61098
▁schema	-9.61224
nThere	-9.61242
▁self	-9.61382
Update	-9.61404
ious	-9.61418
▁happy	-9.61426
▁14	-9.61556
▁road	-9.6158
▁val	-9.61613
▁either	-9.61653
lmost	-9.6172
though	-9.61817
▁running	-9.61868
▁provid	-9.61923
▁built	-9.61943
▁repair	-9.61945
▁activities	-9.61964
▁moder	-9.6202
▁sql	-9.6212
▁Count	-9.62122
ations	-9.62138
▁spi	-9.62185
use	-9.62277
▁received	-9.62278
▁gra	-9.62295
▁whether	-9.62301
be	-9.62305
Descriptor	-9.62424
▁sell	-9.62464
▁enti	-9.62482
Component	-9.6249
▁println	-9.62627
▁Ar	-9.62701
ear	-9.62738
▁ext	-9.62795
▁insurance	-9.62911
Values	-9.62951
_1	-9.62971
ology	-9.62999
Access	-9.63036
ring	-9.63067
▁international	-9.63148
someone	-9.63175
▁issue	-9.63281
▁display	-9.63366
couple	-9.63416
▁Double	-9.63459
▁command	-9.63511
▁Some	-9.63553
▁sales	-9.63634
▁problems	-9.63803
▁San	-9.63812
ill	-9.63835
▁projects	-9.63848
▁finish	-9.63956
▁types	-9.63959
Buffer	-9.64046
▁global	-9.64069
ama	-9.64125
If	-9.64217
▁regular	-9.64233
▁Cal	-9.64253
▁Di	-9.64352
reme	-9.64394
▁fall	-9.64401
▁question	-9.64572
▁block	-9.64628
▁via	-9.64674
▁went	-9.64698
▁impact	-9.64717
Template	-9.64829
urch	-9.64832
overnment	-9.64861
els	-9.64895
Header	-9.64925
▁production	-9.64933
▁Gu	-9.64938
king	-9.64946
▁operation	-9.65064
__	-9.65264
▁learning	-9.65279
craft	-9.65302
▁fill	-9.65319
bar	-9.65319
▁parameters	-9.65348
▁policy	-9.65606
▁Me	-9.65669
ummer	-9.65911
▁unit	-9.65948
▁cause	-9.65987
os	-9.66126
ro	-9.66208
▁third	-9.66271
Collection	-9.66301
value	-9.66343
▁sale	-9.66386
TV	-9.66402
Input	-9.66649
vil	-9.66747
▁parts	-9.66791
ino	-9.66799
improve	-9.66851
▁nice	-9.66854
▁cool	-9.67059
▁init	-9.67102
Policy	-9.67106
standing	-9.67157
▁student	-9.67216
▁deliver	-9.67227
▁asList	-9.67401
▁container	-9.67644
▁platform	-9.67751
URL	-9.67784
▁fresh	-9.67797
▁...	-9.68014
▁perform	-9.6803
▁inside	-9.68066
U	-9.68132
▁solutions	-9.68137
▁Fr	-9.68153
▁visitor	-9.68256
▁fund	-9.68295
▁box	-9.68375
▁sur	-9.6838
uty	-9.68435
▁Get	-9.68607
▁#	-9.68716
▁solution	-9.68965
▁deep	-9.68985
▁User	-9.69024
▁machine	-9.69073
▁moment	-9.69075
ta	-9.69157
▁foot	-9.69241
nWhen	-9.69319
ak	-9.69411
▁screen	-9.69493
▁pretty	-9.695
ny	-9.6951
▁blog	-9.69523
▁13	-9.69528
▁pos	-9.69677
▁factory	-9.69805
uck	-9.69856
opular	-9.69859
ade	-9.69917
▁\"	-9.7
▁reach	-9.70098
▁ve	-9.70123
▁held	-9.70162
▁existing	-9.70277
▁generate	-9.70281
▁party	-9.70293
▁trip	-9.70334
ung	-9.70353
84	-9.70421
▁allows	-9.70428
▁cour	-9.70444
▁description	-9.70503
dy	-9.70511
▁Ba	-9.70572
▁Mon	-9.70665
▁UK	-9.70684
Port	-9.70696
rica	-9.70697
vision	-9.70711
Rule	-9.70843
▁stand	-9.70987
▁title	-9.71006
▁Response	-9.71013
mm	-9.71041
▁em	-9.71052
▁hu	-9.71132
▁leave	-9.71186
▁changes	-9.71196
Reader	-9.7128
▁anything	-9.71567
etter	-9.71569
▁writing	-9.71584
▁taken	-9.71683
▁resources	-9.71685
venue	-9.71718
derByComparator	-9.71769
▁dog	-9.71865
▁Fri	-9.71888
▁six	-9.7199
field	-9.71993
▁included	-9.72097
▁%	-9.72288
▁outside	-9.72302
▁cel	-9.72376
▁multi	-9.72407
net	-9.72412
▁bank	-9.7249
▁credit	-9.72504
▁points	-9.72562
▁hi	-9.72606
▁maintain	-9.72628
▁provider	-9.7272
▁bad	-9.72832
▁auto	-9.72969
▁damage	-9.72985
▁percent	-9.73054
▁cl	-9.73162
Ref	-9.7319
▁Day	-9.73274
▁basic	-9.73285
▁remain	-9.73469
▁guest	-9.73485
▁leading	-9.73491
▁favorite	-9.73499
Log	-9.73542
eel	-9.73623
lo	-9.73759
Will	-9.73863
times	-9.73993
▁col	-9.74022
▁related	-9.74052
Line	-9.74249
olar	-9.74341
▁channel	-9.74459
▁pick	-9.74495
▁Ja	-9.74618
Oct	-9.74681
▁lang	-9.74765
ospital	-9.74765
year	-9.74778
▁clu	-9.74794
nSo	-9.74808
▁demo	-9.74832
▁paint	-9.74885
▁Du	-9.74925
▁medical	-9.74953
▁string	-9.74955
▁touch	-9.75013
▁17	-9.75077
▁tak	-9.75098
▁war	-9.751
ted	-9.75139
▁offset	-9.75354
ush	-9.75373
▁Con	-9.75381
beans	-9.75387
ability	-9.7539
Description	-9.75438
im	-9.75473
cal	-9.75476
▁green	-9.75501
▁potential	-9.75507
▁ju	-9.75531
▁mobile	-9.75546
like	-9.757
▁Of	-9.75772
▁split	-9.75783
▁recent	-9.75792
Start	-9.75853
Dir	-9.75963
10	-9.76024
▁lower	-9.76025
▁sleep	-9.76153
Bytes	-9.76166
Writer	-9.76223
bb	-9.76274
Repository	-9.76307
where	-9.76323
▁aff	-9.76332
▁previous	-9.76393
▁electr	-9.76412
▁empty	-9.76423
▁2015	-9.76478
▁exchange	-9.76534
▁msg	-9.76587
table	-9.76655
▁Tu	-9.76689
▁statement	-9.76875
▁eng	-9.7692
▁tr	-9.76924
Location	-9.76955
▁params	-9.7701
rl	-9.77084
matter	-9.77089
Parser	-9.77096
▁firm	-9.77124
▁lo	-9.77127
▁tools	-9.77147
▁War	-9.77203
▁Data	-9.77318
▁die	-9.77341
▁track	-9.77399
Job	-9.77422
ris	-9.77494
▁recently	-9.77531
▁protect	-9.77542
ditional	-9.77629
▁conce	-9.77631
▁treat	-9.77671
▁ref	-9.7774
ern	-9.77973
Now	-9.78053
▁replace	-9.78112
based	-9.78146
▁pool	-9.78197
▁prevent	-9.78349
Mapping	-9.78412
tage	-9.78587
▁board	-9.78623
West	-9.7865
ons	-9.78653
▁red	-9.78761
Or	-9.78879
▁digital	-9.78895
▁organization	-9.78918
▁json	-9.78957
▁Ge	-9.7897
▁discuss	-9.79017
do	-9.79116
ED	-9.79132
▁groups	-9.79137
▁launch	-9.79149
▁cent	-9.79155
▁Design	-9.79164
▁reading	-9.79165
ke	-9.79175
▁Not	-9.79213
Get	-9.79228
Output	-9.79523
Tag	-9.796
Format	-9.7965
▁window	-9.79811
▁takes	-9.79827
Block	-9.79836
Base	-9.79842
▁round	-9.80037
Length	-9.80056
nTh	-9.80061
▁images	-9.80159
▁colle	-9.80188
▁arg	-9.80436
▁significant	-9.80457
body	-9.80467
▁ground	-9.80491
▁award	-9.80621
▁Dec	-9.80703
ommercial	-9.80813
▁lock	-9.80834
national	-9.80863
sh	-9.80865
▁u	-9.80869
hi	-9.80916
▁Ka	-9.80992
▁cook	-9.80995
▁Jun	-9.81076
ong	-9.81084
▁stock	-9.8116
▁safety	-9.81207
aby	-9.81275
RuntimeException	-9.81326
rage	-9.81329
▁purpose	-9.8142
▁Query	-9.81468
▁200	-9.81565
▁met	-9.81708
▁teach	-9.8178
▁tour	-9.81935
Also	-9.82
▁sun	-9.82005
▁posted	-9.8211
nomic	-9.8215
▁DEFAULT	-9.82388
Range	-9.82422
▁average	-9.82484
▁section	-9.82561
ner	-9.8259
▁mix	-9.82617
▁Cr	-9.82652
▁By	-9.82682
weet	-9.82695
▁var	-9.82718
▁wait	-9.82749
mp	-9.82757
▁consul	-9.8285
ick	-9.82855
▁similar	-9.82866
Attributes	-9.82882
▁article	-9.82942
▁programs	-9.8298
▁env	-9.82993
Is	-9.8302
▁multiple	-9.83055
()	-9.83135
Office	-9.83247
▁camp	-9.83268
▁vehicle	-9.83299
>"	-9.83465
▁Throwable	-9.83515
▁Nov	-9.8354
My	-9.83566
▁template	-9.83643
▁Ste	-9.83666
▁late	-9.83739
▁draw	-9.83855
▁Af	-9.83998
▁warm	-9.84026
▁label	-9.84062
ssential	-9.84141
▁conf	-9.84152
▁Free	-9.84193
▁longer	-9.84286
Most	-9.84298
▁piece	-9.84313
▁Har	-9.84327
nday	-9.84348
▁panel	-9.84354
ebr	-9.84475
▁weight	-9.84477
▁Resource	-9.84495
▁synchronized	-9.84547
ult	-9.84703
▁star	-9.84849
ifficult	-9.84877
▁trying	-9.84977
▁require	-9.84984
▁trade	-9.85064
▁grad	-9.85157
aught	-9.85245
tain	-9.85258
mon	-9.85262
▁selected	-9.85317
▁worked	-9.85338
▁situation	-9.85341
81	-9.85346
▁higher	-9.85346
▁doc	-9.85352
VALUE	-9.85406
▁+=	-9.85446
new	-9.85454
▁poli	-9.8548
▁stra	-9.85595
▁House	-9.85599
▁mar	-9.85668
▁wanted	-9.85715
Satur	-9.85731
▁Entry	-9.85747
Enabled	-9.85846
▁announce	-9.85859
▁attend	-9.85873
▁Ke	-9.85981
▁assist	-9.86098
ride	-9.86215
▁sh	-9.86504
user	-9.86594
▁prices	-9.86609
▁Gar	-9.86618
▁spot	-9.86649
▁schedule	-9.86652
▁restaurant	-9.86701
▁requirements	-9.86703
rain	-9.86736
▁getString	-9.86824
nM	-9.8687
ccording	-9.86884
▁failed	-9.86892
▁player	-9.86894
▁enable	-9.86895
Order	-9.86951
der	-9.87011
▁schemas	-9.87058
▁component	-9.87108
▁daily	-9.87143
▁sort	-9.87319
▁friend	-9.8739
▁colour	-9.87408
▁conditions	-9.87424
▁speed	-9.87479
▁probably	-9.87481
ically	-9.8756
nHe	-9.87617
▁pi	-9.87679
ately	-9.87716
▁anti	-9.87742
Label	-9.87748
▁planning	-9.87756
oliday	-9.87812
It	-9.87857
me	-9.87863
ator	-9.87865
▁bro	-9.87883
▁cell	-9.87899
eco	-9.879
▁term	-9.8796
▁hit	-9.87986
▁selection	-9.88032
Panel	-9.88033
▁convert	-9.88065
▁encou	-9.88085
▁patients	-9.88137
▁fine	-9.88149
az	-9.88153
▁compe	-9.88222
London	-9.88302
▁tree	-9.8842
▁Par	-9.88466
▁Pro	-9.88556
▁prepare	-9.88644
▁getProperty	-9.88756
▁loss	-9.88784
▁Google	-9.88789
lass	-9.88809
ck	-9.88831
▁reduce	-9.88857
over	-9.88923
als	-9.88983
▁initial	-9.89028
▁Man	-9.89048
▁manager	-9.89082
▁2014	-9.89187
One	-9.89219
▁ha	-9.89296
artist	-9.89309
▁costs	-9.8936
▁fully	-9.89495
▁driver	-9.89504
set	-9.89561
▁Bri	-9.89656
▁legal	-9.89659
▁40	-9.89702
▁word	-9.89715
offe	-9.8973
▁files	-9.89788
▁soft	-9.89801
▁cur	-9.89804
ird	-9.89823
Link	-9.89832
▁language	-9.8984
At	-9.89924
▁Page	-9.89961
▁resolve	-9.90027
▁ticket	-9.90027
▁Default	-9.90144
ast	-9.90169
▁Message	-9.90273
▁Inc	-9.90321
Uri	-9.90573
Position	-9.90603
▁Per	-9.90614
▁pattern	-9.90629
Settings	-9.90646
Since	-9.90707
chieve	-9.90738
▁tool	-9.90757
Q	-9.90796
▁International	-9.90838
▁bag	-9.90891
KEY	-9.90935
▁directly	-9.90961
▁States	-9.90978
▁microsoft	-9.91016
op	-9.91045
▁leg	-9.91065
▁gold	-9.91099
▁dr	-9.91102
▁button	-9.91109
▁owner	-9.91115
▁Her	-9.91127
ang	-9.91157
▁plans	-9.91187
Not	-9.91235
dom	-9.91352
▁uri	-9.91391
▁ra	-9.9142
▁ability	-9.91518
▁sil	-9.91543
ys	-9.91605
▁ec	-9.91618
▁num	-9.91644
hibit	-9.91645
SuppressWarnings	-9.91806
unch	-9.91828
▁mill	-9.91897
?'	-9.91908
ober	-9.91954
▁"<	-9.92054
Call	-9.9206
ept	-9.92137
la	-9.92264
stone	-9.92308
▁words	-9.92362
rink	-9.92372
▁buf	-9.92373
▁database	-9.9243
▁Tr	-9.92464
q	-9.92477
▁pain	-9.92509
▁necessary	-9.92648
▁shape	-9.92721
▁tag	-9.92737
▁books	-9.92739
▁involved	-9.92759
stment	-9.92835
▁connect	-9.9286
▁sc	-9.92903
apo	-9.92995
ft	-9.93006
let	-9.93104
▁transport	-9.93122
ain	-9.93276
Level	-9.93283
Async	-9.93353
▁remember	-9.9342
ca	-9.93457
Endpoint	-9.93548
▁sp	-9.93597
elt	-9.93615
men	-9.93732
▁physical	-9.93749
▁dry	-9.93754
ans	-9.93787
work	-9.93795
ford	-9.93888
▁men	-9.93896
▁Black	-9.93931
▁successful	-9.93973
▁mis	-9.94002
▁Objects	-9.94005
▁tru	-9.94071
Iterator	-9.94118
Channel	-9.94123
▁Val	-9.94184
▁Health	-9.94233
▁applications	-9.94292
▁Lu	-9.94331
▁ru	-9.94339
▁compare	-9.94344
all	-9.9442
▁construction	-9.94475
▁listener	-9.94584
▁offering	-9.94597
fore	-9.94655
▁groupId	-9.94687
▁relationship	-9.94785
▁Pi	-9.94803
spend	-9.94834
New	-9.94837
bru	-9.94896
▁Abstract	-9.94915
▁His	-9.95106
▁seek	-9.95129
▁Business	-9.95189
$	-9.95256
English	-9.95259
ried	-9.9527
rough	-9.95339
▁players	-9.95353
▁gain	-9.95392
▁21	-9.95397
▁setup	-9.95459
▁budget	-9.95467
▁act	-9.95472
da	-9.95541
eth	-9.95659
▁From	-9.95676
▁mass	-9.95738
▁creating	-9.95747
ri	-9.95766
}	-9.95815
lor	-9.95905
nte	-9.9591
▁inj	-9.96048
▁Color	-9.96092
yard	-9.96159
▁demand	-9.96177
▁hour	-9.96183
▁tip	-9.96231
ma	-9.96233
▁recommend	-9.9624
▁webservice	-9.96278
Registry	-9.96322
▁normal	-9.96328
▁fields	-9.96374
▁speak	-9.96447
Params	-9.96518
▁Property	-9.96553
▁install	-9.9669
ni	-9.9677
▁consumer	-9.96798
▁activity	-9.96935
▁>=	-9.96953
▁opportunities	-9.96953
▁aim	-9.97148
▁attribute	-9.97225
Fields	-9.97282
vid	-9.97302
When	-9.97437
ery	-9.97468
▁Po	-9.97529
▁metadata	-9.97552
vel	-9.97624
Inner	-9.97651
▁60	-9.97674
▁comment	-9.97704
ttention	-9.97717
▁huge	-9.9774
ries	-9.9777
ler	-9.97778
▁internal	-9.97781
board	-9.97807
▁smart	-9.97832
fully	-9.97892
▁progress	-9.97914
▁ret	-9.97936
▁ten	-9.98026
Identifier	-9.98192
lf	-9.98256
ctor	-9.98282
▁google	-9.98357
▁Aug	-9.98359
orge	-9.98395
▁header	-9.98421
Image	-9.98445
back	-9.98524
▁drop	-9.9855
▁ideal	-9.9857
▁strength	-9.98633
▁Mr	-9.98639
nS	-9.98644
▁ro	-9.98662
▁limit	-9.98673
▁welcome	-9.98734
we	-9.98768
▁hold	-9.98775
▁ill	-9.98776
ashing	-9.98835
ink	-9.98845
Read	-9.98874
▁levels	-9.98948
18	-9.98973
Form	-9.98977
▁frame	-9.98981
▁direct	-9.99081
▁countries	-9.9925
▁parents	-9.99311
▁More	-9.99337
come	-9.99409
▁hash	-9.99477
Target	-9.99542
▁cat	-9.99562
ston	-9.99584
▁reference	-9.99617
▁surface	-9.99621
mic	-9.99623
▁expression	-9.99668
ad	-9.99795
▁positive	-9.99796
▁nothing	-9.99805
▁explain	-9.99867
▁master	-9.99896
▁transaction	-9.99995
mer	-10.0006
▁giv	-10.0021
▁chi	-10.0022
▁Table	-10.0023
▁teacher	-10.0027
▁2013	-10.0039
Transaction	-10.005
▁written	-10.0061
▁setProperty	-10.0062
inner	-10.0066
▁mount	-10.0067
_2	-10.0069
End	-10.0075
▁supply	-10.0075
▁Colle	-10.0077
▁commit	-10.0078
pm	-10.0078
▁highest	-10.0082
▁meta	-10.0088
rt	-10.0089
▁patient	-10.009
▁topic	-10.0092
▁http	-10.01
Strategy	-10.0103
ental	-10.0113
▁employees	-10.0119
Please	-10.012
▁Plan	-10.0121
▁updated	-10.0123
rooms	-10.0125
▁sense	-10.0131
▁Don	-10.0145
▁blue	-10.0151
rry	-10.0159
ining	-10.016
▁terms	-10.0163
un	-10.0169
band	-10.0173
▁photograph	-10.0173
arding	-10.0177
▁communication	-10.0194
Offset	-10.0202
▁stage	-10.0203
▁note	-10.0211
erry	-10.0211
▁Janu	-10.0225
▁ho	-10.0228
▁released	-10.0229
Good	-10.0241
oma	-10.0242
▁healthy	-10.0243
ide	-10.0246
nWith	-10.0251
loan	-10.026
▁inter	-10.0262
▁cast	-10.0264
▁handler	-10.0265
▁avoid	-10.027
▁force	-10.0275
shir	-10.0277
▁delivery	-10.0279
▁completed	-10.0285
ell	-10.0293
Wrapper	-10.0293
▁deb	-10.0299
▁setting	-10.0304
▁counter	-10.0308
▁campaign	-10.0311
▁Min	-10.0315
▁Web	-10.0317
▁Element	-10.0329
64	-10.0331
Have	-10.0337
▁camera	-10.0339
▁q	-10.0341
Search	-10.0341
▁disease	-10.0346
Queue	-10.0347
ip	-10.0353
URI	-10.036
ef	-10.0369
▁instead	-10.0373
hol	-10.0375
▁Ta	-10.0376
▁al	-10.0383
▁cru	-10.0387
nAnd	-10.0393
ay	-10.04
▁float	-10.0401
▁families	-10.0405
▁edge	-10.041
▁Configuration	-10.0422
▁Sep	-10.0444
ING	-10.0448
▁mini	-10.0449
▁gr	-10.0455
ugh	-10.0462
▁animal	-10.0471
▁Project	-10.0472
top	-10.0472
owl	-10.0473
icul	-10.0478
▁Facebook	-10.0488
East	-10.0499
wide	-10.0503
▁hasNext	-10.0514
uel	-10.0515
nes	-10.0519
▁notice	-10.0522
Tree	-10.0523
▁analysis	-10.0531
Param	-10.0531
▁Department	-10.0541
ces	-10.0551
ifor	-10.0559
▁published	-10.0561
▁Flo	-10.0571
6\	-10.0572
▁cross	-10.0578
▁character	-10.0582
▁def	-10.0586
▁elements	-10.0596
Scope	-10.0601
!!	-10.0609
▁Chi	-10.061
Point	-10.0619
ray	-10.0619
pent	-10.0621
▁plus	-10.0622
Cluster	-10.0631
▁complex	-10.0634
tical	-10.0639
▁While	-10.0641
Option	-10.065
Step	-10.0656
▁effect	-10.0658
▁guarantee	-10.0659
▁starting	-10.0673
▁lost	-10.0677
▁protobuf	-10.068
▁URL	-10.0683
Details	-10.0686
data	-10.0687
▁payment	-10.0687
▁Q	-10.0688
▁recipe	-10.069
▁remote	-10.0694
Dao	-10.0701
ai	-10.0703
▁advice	-10.0703
hap	-10.0704
▁2012	-10.0705
▁se	-10.0708
▁cluster	-10.071
uk	-10.0711
nnual	-10.0713
Processor	-10.072
Pattern	-10.0731
efficient	-10.0734
tival	-10.0736
astic	-10.0748
Re	-10.0749
▁figure	-10.0749
InputStream	-10.0749
20	-10.0752
tation	-10.0755
▁invoke	-10.0772
▁URI	-10.0774
▁Document	-10.0774
▁hor	-10.0775
bo	-10.0787
tail	-10.0788
▁settings	-10.079
83	-10.079
▁parameter	-10.0791
▁Fa	-10.0809
▁saw	-10.0809
▁programm	-10.0812
▁sent	-10.0813
▁advan	-10.0815
ehind	-10.0819
▁Field	-10.0856
7\	-10.0859
▁Math	-10.086
='	-10.0863
spect	-10.0866
mother	-10.0869
bur	-10.0877
mond	-10.0886
▁installation	-10.0887
▁trust	-10.0887
itting	-10.0891
▁itself	-10.0894
▁furniture	-10.0902
cred	-10.0902
▁carry	-10.0906
▁category	-10.0913
Project	-10.0917
ize	-10.0931
ited	-10.095
▁Street	-10.0955
cent	-10.0956
▁constant	-10.0959
rm	-10.0961
▁saving	-10.0965
house	-10.0967
German	-10.0968
min	-10.0969
med	-10.097
▁cas	-10.0972
style	-10.0974
Package	-10.0976
▁attributes	-10.098
▁participat	-10.0983
Process	-10.0984
ins	-10.0986
ig	-10.0987
oat	-10.0991
lic	-10.1001
Storage	-10.1003
▁Mockito	-10.1007
Region	-10.1012
rant	-10.1016
▁limited	-10.1018
▁31	-10.1024
▁bytes	-10.1025
▁22	-10.1027
▁score	-10.103
Keys	-10.103
▁bl	-10.1032
▁param	-10.1033
file	-10.1039
▁sites	-10.1046
▁named	-10.1048
▁pages	-10.1051
▁random	-10.1058
▁password	-10.106
nBut	-10.1065
Callback	-10.1068
▁fai	-10.107
▁db	-10.1072
▁pair	-10.1076
Json	-10.1079
▁moving	-10.1081
50	-10.1081
petition	-10.1084
▁weather	-10.1085
▁transform	-10.1087
eck	-10.1089
ndia	-10.1094
ised	-10.1107
Report	-10.1107
Match	-10.1108
▁secure	-10.1111
▁hands	-10.1112
istic	-10.1115
Role	-10.1116
DTO	-10.1121
▁package	-10.1121
pressure	-10.113
▁Green	-10.1131
▁discount	-10.1135
fa	-10.1136
▁core	-10.1137
▁street	-10.1137
Create	-10.1138
▁matches	-10.1142
▁Schema	-10.1148
After	-10.1149
▁Services	-10.115
Loader	-10.1155
▁attr	-10.1158
▁slow	-10.1161
motion	-10.1168
Operator	-10.1175
class	-10.118
▁manage	-10.118
Meta	-10.1184
▁SQLException	-10.1204
Types	-10.1214
▁Best	-10.1227
▁Na	-10.1227
▁Gi	-10.1231
▁assertNull	-10.1231
▁stress	-10.1236
paper	-10.1238
orporate	-10.124
▁arriv	-10.1245
ot	-10.1246
gg	-10.127
Application	-10.1271
12	-10.1273
nAll	-10.1274
▁exactly	-10.1279
ench	-10.1282
▁drug	-10.1286
paid	-10.1297
Int	-10.1297
hopping	-10.1301
ite	-10.1307
▁employ	-10.1313
tural	-10.1316
▁nature	-10.1321
▁chain	-10.1324
▁addAll	-10.1325
▁mention	-10.1332
inning	-10.1332
▁wrong	-10.1336
▁background	-10.1341
nd	-10.1348
▁largest	-10.1354
▁Open	-10.1355
▁trad	-10.1361
▁station	-10.1363
wel	-10.1369
Graph	-10.1369
▁pull	-10.1376
▁Simple	-10.1379
▁nation	-10.1381
▁individuals	-10.1383
▁Bra	-10.1385
▁mag	-10.1386
▁graph	-10.1388
▁lines	-10.1389
Default	-10.1397
aste	-10.1404
Mock	-10.1406
▁Thread	-10.1407
▁Red	-10.1414
30	-10.1419
▁clazz	-10.142
▁push	-10.142
▁util	-10.1422
▁Xml	-10.1423
First	-10.1424
▁contract	-10.1425
Prefix	-10.1428
▁rec	-10.1446
▁da	-10.1448
▁Ga	-10.1449
Null	-10.1449
▁Port	-10.1451
▁mid	-10.1454
▁allowed	-10.1455
▁Base	-10.1465
nAt	-10.1466
▁race	-10.1472
▁strategy	-10.1483
Long	-10.1486
ments	-10.1486
ps	-10.1505
nty	-10.1508
▁trend	-10.1509
▁produce	-10.1511
well	-10.1512
▁bi	-10.1514
▁represent	-10.152
▁Entity	-10.1532
em	-10.1534
inter	-10.1535
ja	-10.1538
▁movie	-10.1541
▁Pet	-10.155
Law	-10.1561
2007	-10.1561
reative	-10.1562
▁prem	-10.1563
▁models	-10.1569
▁exists	-10.157
Sub	-10.1585
anger	-10.1589
▁extension	-10.1592
ants	-10.1602
nP	-10.1603
▁advanced	-10.1606
▁Char	-10.1608
sports	-10.1612
▁direction	-10.1612
▁dec	-10.1613
ace	-10.1615
avy	-10.1617
▁Association	-10.162
nut	-10.1622
▁Hi	-10.1627
▁explore	-10.163
▁difference	-10.1631
came	-10.1643
▁mil	-10.1649
▁Void	-10.1655
roof	-10.1657
▁internet	-10.1663
▁bottom	-10.1667
airs	-10.1668
Today	-10.1672
Delete	-10.1677
Adapter	-10.1683
Each	-10.1683
▁eq	-10.169
▁devices	-10.1691
▁offered	-10.1693
▁reset	-10.1695
Stats	-10.1697
▁myself	-10.1701
▁degree	-10.1701
ians	-10.1702
▁localVar	-10.1704
date	-10.1705
fish	-10.1712
▁profile	-10.1713
Timeout	-10.1715
▁mark	-10.172
Api	-10.172
▁Windows	-10.1722
yl	-10.1731
▁Time	-10.1731
82	-10.174
▁z	-10.1742
ourney	-10.1762
science	-10.177
Extension	-10.1771
Names	-10.1771
#	-10.1772
xml	-10.1778
▁Event	-10.1779
ban	-10.1779
90	-10.1783
▁ob	-10.1784
Check	-10.1784
▁Sco	-10.1785
▁seri	-10.1791
▁bur	-10.1792
lend	-10.1795
▁White	-10.1795
1.	-10.1798
▁changed	-10.18
▁imp	-10.1813
▁1000	-10.1818
ette	-10.1818
▁Bi	-10.1822
Folder	-10.1826
ron	-10.1829
illage	-10.183
▁Clu	-10.1832
Well	-10.1839
xercise	-10.185
Take	-10.1854
▁Mu	-10.1855
▁fo	-10.1856
▁che	-10.1858
ko	-10.1861
▁Call	-10.1866
onference	-10.1867
Statement	-10.1868
▁23	-10.1868
▁concept	-10.1872
▁domain	-10.1883
▁cases	-10.1887
▁configure	-10.189
▁bus	-10.1892
▁temperature	-10.1893
▁reported	-10.1894
▁finished	-10.1894
▁protection	-10.1902
▁Action	-10.1903
▁smooth	-10.1904
▁El	-10.191
▁technical	-10.1911
Whether	-10.1913
▁sector	-10.1919
▁<=	-10.1919
▁StringUtils	-10.1921
▁supported	-10.1923
▁IllegalState	-10.1926
ware	-10.1928
teen	-10.193
▁band	-10.1931
au	-10.1943
yer	-10.1946
32	-10.1948
▁sample	-10.1952
▁finding	-10.1953
▁je	-10.1958
▁primary	-10.196
ches	-10.1963
▁classes	-10.1968
row	-10.1968
▁monitor	-10.1971
Internal	-10.1975
ization	-10.1982
ran	-10.1987
creasing	-10.199
▁Ca	-10.199
▁Before	-10.1991
▁gen	-10.1994
ming	-10.1996
list	-10.2003
Button	-10.2008
definite	-10.2008
▁suit	-10.2009
▁Game	-10.2014
stories	-10.2022
oast	-10.2028
▁scene	-10.203
rd	-10.2031
▁inspire	-10.2032
▁attack	-10.2042
▁album	-10.2049
▁director	-10.2052
terview	-10.2056
▁south	-10.2056
ition	-10.2058
▁feed	-10.2063
ough	-10.2065
▁substring	-10.2068
ological	-10.2068
nC	-10.2071
▁Pe	-10.2072
▁advance	-10.2085
▁overall	-10.2091
▁Ri	-10.2114
motor	-10.2115
▁author	-10.2117
European	-10.212
▁classic	-10.2124
▁pack	-10.2127
▁Internet	-10.2127
▁Se	-10.2129
▁rela	-10.213
▁Key	-10.2139
cha	-10.2139
public	-10.2143
▁fabric	-10.2146
▁bean	-10.2148
ube	-10.2156
part	-10.2157
Unit	-10.2161
Converter	-10.2165
Write	-10.2166
▁scope	-10.2174
▁thr	-10.2175
▁Value	-10.2177
Expr	-10.2178
▁led	-10.2179
▁Company	-10.219
▁train	-10.2191
uce	-10.2199
▁ba	-10.2201
▁detail	-10.2204
Directory	-10.2206
Last	-10.2209
▁fam	-10.2211
ile	-10.2212
▁volu	-10.2212
Dto	-10.2213
rent	-10.2223
▁tho	-10.2236
za	-10.2239
path	-10.2241
nOn	-10.2242
aster	-10.2246
ber	-10.2251
pe	-10.2255
Europe	-10.2256
▁partition	-10.2256
▁mu	-10.2256
▁suggest	-10.2257
▁pan	-10.2265
▁mode	-10.2269
partment	-10.227
▁arm	-10.2272
asked	-10.2279
Layout	-10.2287
Mapper	-10.2289
▁Add	-10.2292
88	-10.2293
▁structure	-10.2294
▁props	-10.2301
attle	-10.2302
▁manufacturer	-10.2306
dedicated	-10.2308
▁micro	-10.2308
ire	-10.231
▁press	-10.2317
▁spring	-10.2317
▁Wi	-10.2319
▁Ru	-10.2319
Lake	-10.232
▁InputStream	-10.2335
▁Nor	-10.2344
Future	-10.2345
▁stuff	-10.2347
int	-10.2351
▁destination	-10.2352
urg	-10.2352
iting	-10.2353
▁claim	-10.2357
ory	-10.2358
Change	-10.2359
fruit	-10.236
▁balance	-10.2367
if	-10.237
▁clo	-10.237
Child	-10.2372
cience	-10.2373
▁operate	-10.2374
Body	-10.2375
▁cards	-10.2378
▁namespace	-10.2379
housand	-10.2381
▁mat	-10.2387
▁protocol	-10.2392
▁considered	-10.2403
Some	-10.2403
Root	-10.2404
3.	-10.2405
▁Function	-10.2406
▁du	-10.2407
▁cloud	-10.2409
86	-10.2416
=\"	-10.2416
▁Management	-10.2425
▁Ad	-10.2426
cken	-10.2429
etic	-10.2432
▁appropriate	-10.2437
▁uuid	-10.2443
▁Si	-10.2451
Annotation	-10.2456
▁Com	-10.2456
▁rid	-10.2459
fast	-10.246
aul	-10.2461
System	-10.2471
off	-10.2482
rise	-10.2485
▁shared	-10.2487
tt	-10.249
ologies	-10.2496
JSON	-10.2506
▁colors	-10.2511
▁flight	-10.2515
other	-10.2522
Add	-10.2523
▁valid	-10.2525
Interface	-10.2531
▁equal	-10.2533
▁kit	-10.2547
▁memory	-10.2548
▁friendly	-10.2556
▁pieces	-10.2562
nAfter	-10.2564
▁First	-10.2566
▁trim	-10.2573
▁ple	-10.2576
▁te	-10.2576
▁beginning	-10.258
▁Method	-10.2582
▁expand	-10.2587
Lock	-10.2587
place	-10.2588
dnes	-10.2589
▁Year	-10.2599
Proxy	-10.2601
▁Nullable	-10.2605
▁maintenance	-10.2606
Execution	-10.2609
▁2011	-10.2618
▁mission	-10.2618
▁scale	-10.2628
▁basis	-10.2629
▁layer	-10.2632
Str	-10.2636
pet	-10.2645
not	-10.2648
commo	-10.265
▁ImmutableList	-10.2654
erationException	-10.2659
▁Session	-10.2667
sp	-10.2674
▁ID	-10.2676
Member	-10.2677
Road	-10.2678
▁Great	-10.2679
▁capacity	-10.2687
2006	-10.2688
▁insert	-10.2691
▁UnsupportedOp	-10.2691
▁2010	-10.2699
▁sen	-10.2699
Holder	-10.27
▁Power	-10.27
▁Program	-10.2703
▁voice	-10.2726
TO	-10.2726
▁route	-10.2727
▁prop	-10.273
Generator	-10.273
Once	-10.2731
▁Post	-10.2731
per	-10.2732
Serializer	-10.274
▁reveal	-10.2747
▁agree	-10.275
▁license	-10.275
15	-10.2751
▁inner	-10.2752
▁Check	-10.2756
Variable	-10.2756
for	-10.2757
▁endpoint	-10.2766
▁pu	-10.2766
▁determine	-10.2766
While	-10.2771
▁supplier	-10.2771
▁seven	-10.2776
Permission	-10.2778
▁Mac	-10.2783
▁delegate	-10.2787
eyond	-10.2791
▁steps	-10.2809
▁methods	-10.2812
▁Board	-10.2813
ties	-10.2813
▁Director	-10.2822
heap	-10.2825
bor	-10.2828
tor	-10.2831
Part	-10.2832
▁Sen	-10.2836
▁req	-10.2836
van	-10.284
Def	-10.2851
▁movement	-10.2855
▁height	-10.2855
lad	-10.2856
▁separate	-10.2857
▁Council	-10.286
Ids	-10.2863
▁driv	-10.2864
▁responsible	-10.2866
▁opening	-10.2867
Resolver	-10.2869
ccident	-10.2873
Local	-10.2876
▁rock	-10.2877
▁Pen	-10.2877
▁Sam	-10.2884
sort	-10.2888
ines	-10.2889
arlier	-10.2893
▁records	-10.2896
ug	-10.2896
ane	-10.2901
▁layout	-10.2903
▁clone	-10.2905
▁absolute	-10.2906
rls	-10.2911
▁Bank	-10.2911
▁Security	-10.2915
▁Iterator	-10.2918
Controller	-10.2925
usher	-10.2926
han	-10.2927
ess	-10.2929
Max	-10.293
▁names	-10.293
take	-10.2931
▁par	-10.2933
▁occ	-10.2933
▁tea	-10.2933
▁testing	-10.2935
▁Out	-10.2936
▁bloo	-10.2944
500	-10.2948
Password	-10.2952
▁wind	-10.2955
▁wild	-10.2955
▁department	-10.2968
▁reports	-10.2971
▁brea	-10.2973
▁menu	-10.2977
▁Sha	-10.2979
OutputStream	-10.2984
▁correct	-10.2989
▁aspect	-10.2998
▁rich	-10.2999
▁Li	-10.3004
▁prefix	-10.3008
▁App	-10.3011
▁Water	-10.3015
hy	-10.3016
▁transfer	-10.3017
▁theme	-10.3018
Account	-10.302
▁TEST	-10.3022
▁Server	-10.3027
tle	-10.3028
▁im	-10.3028
Feature	-10.3036
▁Mus	-10.3042
ordable	-10.3051
▁General	-10.3056
▁sharing	-10.3059
ortun	-10.306
spit	-10.3063
▁Star	-10.3064
▁nu	-10.3069
ician	-10.307
▁north	-10.307
According	-10.3076
Join	-10.3079
json	-10.3081
led	-10.3084
active	-10.3084
▁pop	-10.3084
▁listed	-10.3093
▁Sch	-10.3096
▁Un	-10.3107
iam	-10.3108
rick	-10.3108
▁maybe	-10.3113
▁traffic	-10.3116
store	-10.3117
▁miles	-10.3123
rida	-10.3126
mo	-10.3127
97	-10.3139
Val	-10.314
▁Spring	-10.3142
▁testGet	-10.3154
▁Observable	-10.3156
lip	-10.3172
dress	-10.3173
now	-10.3178
ue	-10.318
▁discover	-10.3182
▁keys	-10.3187
Style	-10.3188
▁Book	-10.3191
▁rules	-10.3192
ga	-10.3197
▁bor	-10.3198
▁survey	-10.3198
eating	-10.32
eral	-10.3207
▁spo	-10.3218
▁Network	-10.322
▁HashSet	-10.3222
▁Hu	-10.3222
▁26	-10.3252
free	-10.3258
Module	-10.3264
outh	-10.3265
▁evaluate	-10.3267
▁external	-10.327
▁Light	-10.3271
\":	-10.3272
LocalService	-10.3276
▁Application	-10.3276
▁wa	-10.3278
term	-10.3283
Handle	-10.3283
▁Hot	-10.3286
interested	-10.3288
▁Make	-10.3291
▁28	-10.3294
6.	-10.3296
▁Recognition	-10.3299
more	-10.3302
our	-10.3315
undred	-10.3315
▁flat	-10.3317
11	-10.3318
Op	-10.3321
▁IN	-10.3327
▁Search	-10.3339
iver	-10.3342
▁ingredient	-10.3343
ado	-10.3345
lap	-10.3352
Host	-10.3354
▁immediately	-10.3358
ishing	-10.336
16	-10.3361
▁operations	-10.3364
▁rights	-10.3367
Plan	-10.337
▁getDefault	-10.3376
▁sit	-10.3382
ore	-10.3386
▁En	-10.3394
▁BigDecimal	-10.3402
izing	-10.3405
▁prime	-10.3411
fluence	-10.3413
book	-10.3417
▁raw	-10.3424
▁Job	-10.343
east	-10.3436
elle	-10.344
sland	-10.3441
▁associated	-10.3441
▁generation	-10.3442
cky	-10.3443
Consumer	-10.3451
▁views	-10.3465
pper	-10.3486
▁corner	-10.3486
imate	-10.3487
▁Let	-10.3489
▁Ki	-10.3494
▁identify	-10.3495
nE	-10.3496
ich	-10.3499
▁solid	-10.3501
▁containsKey	-10.3503
Frame	-10.3504
nna	-10.3504
▁Click	-10.3508
Interval	-10.351
▁covered	-10.3514
dge	-10.3517
duct	-10.3519
▁middle	-10.3523
▁extract	-10.3524
ose	-10.3525
centre	-10.3528
wheel	-10.3534
▁Client	-10.3536
People	-10.3538
▁interior	-10.3542
25	-10.3544
nT	-10.3545
▁Sea	-10.3547
▁links	-10.3548
▁Model	-10.3551
ac	-10.3552
▁MAX	-10.3555
▁icon	-10.3557
nB	-10.3561
▁requires	-10.3562
Out	-10.3562
▁vote	-10.3563
Sequence	-10.3563
▁cancer	-10.3565
▁Ver	-10.3566
mse	-10.357
▁setValue	-10.3573
▁Any	-10.3575
▁submit	-10.3576
Partition	-10.3577
true	-10.3585
nF	-10.3586
Invalid	-10.3586
▁Context	-10.3587
▁Show	-10.3588
low	-10.3591
▁govern	-10.3597
App	-10.3598
▁Te	-10.3602
▁Connection	-10.3604
her	-10.3615
▁temp	-10.3615
▁Ni	-10.3616
▁gl	-10.3623
Environment	-10.3626
▁script	-10.3626
▁thrift	-10.3627
▁Json	-10.3632
▁queue	-10.3633
▁companyId	-10.3633
bf	-10.3634
▁appointment	-10.364
!!!	-10.3644
Pool	-10.3653
niques	-10.3669
▁established	-10.3673
▁Bea	-10.3673
▁critical	-10.3673
▁struct	-10.368
▁wire	-10.3691
uate	-10.3697
gent	-10.3709
▁promote	-10.3714
▁proto	-10.3717
ives	-10.3717
▁Blue	-10.3718
▁Am	-10.372
▁distance	-10.3723
:30	-10.3726
tic	-10.373
▁Stream	-10.3731
▁closed	-10.3732
▁Eng	-10.3736
▁prior	-10.374
▁Super	-10.374
lim	-10.3747
▁thread	-10.3749
Double	-10.375
itar	-10.375
que	-10.3752
▁effects	-10.3753
ock	-10.3755
▁IT	-10.3759
▁"\"	-10.3768
▁exclusive	-10.3771
ruck	-10.3772
but	-10.3779
100%	-10.378
▁199	-10.378
85	-10.3785
▁THE	-10.3797
▁getAttribute	-10.3817
Timestamp	-10.3817
▁maximum	-10.3817
ief	-10.3819
▁Mock	-10.3822
nDo	-10.3824
?"	-10.3826
▁Request	-10.3826
gi	-10.3828
▁src	-10.3835
▁stick	-10.3837
Because	-10.384
ale	-10.3842
onomy	-10.3846
▁runner	-10.3847
rown	-10.385
▁Mill	-10.385
Limit	-10.3854
sourceGroupName	-10.3859
▁organizations	-10.3861
▁NOT	-10.3861
Flow	-10.3864
▁flo	-10.387
emon	-10.3873
▁greater	-10.3878
▁introduce	-10.3881
▁soci	-10.3884
▁reasons	-10.3888
▁reflect	-10.3891
▁promot	-10.3894
ala	-10.3895
▁Properties	-10.3895
ik	-10.3896
▁wrap	-10.3904
OS	-10.3906
▁Use	-10.3911
mprovement	-10.3913
ba	-10.3914
▁Many	-10.3914
▁Interrupted	-10.3919
served	-10.3919
▁onto	-10.3926
utting	-10.3927
▁setName	-10.3932
Entries	-10.3933
▁LA	-10.3939
piration	-10.3943
▁grand	-10.3949
▁grid	-10.3951
▁jobs	-10.3954
Batch	-10.3957
text	-10.3957
he	-10.3959
▁comments	-10.3963
▁independent	-10.3964
▁pet	-10.3971
gen	-10.3972
100	-10.3976
▁getService	-10.3983
▁Care	-10.3989
unchecked	-10.3991
▁sus	-10.3991
Thread	-10.3996
Failed	-10.3999
▁Cour	-10.4
▁larger	-10.4007
▁userId	-10.4008
▁abs	-10.4008
bert	-10.4009
former	-10.4016
▁Bay	-10.4018
▁pleas	-10.4021
▁Ko	-10.4028
▁See	-10.4029
▁newInstance	-10.4029
▁prepared	-10.4031
▁AND	-10.4032
01	-10.4032
▁fa	-10.4043
▁27	-10.4044
▁Tex	-10.4044
▁Research	-10.4052
nOne	-10.4055
oph	-10.4061
wave	-10.4065
▁90	-10.4065
▁pur	-10.4066
care	-10.4067
▁Auto	-10.407
▁spa	-10.4074
SQL	-10.4075
▁profi	-10.4079
Without	-10.4089
Plugin	-10.409
▁Global	-10.4096
▁500	-10.4097
▁respond	-10.4099
▁bind	-10.4101
▁Config	-10.4102
▁Education	-10.4107
ient	-10.411
▁missing	-10.4111
▁module	-10.4128
ano	-10.413
▁numbers	-10.4132
▁Life	-10.4134
some	-10.4137
▁ski	-10.414
▁Real	-10.4141
Who	-10.4142
▁getAll	-10.4144
▁equ	-10.4145
▁plastic	-10.4149
▁Wall	-10.4152
ych	-10.4155
▁ServiceResponse	-10.4158
▁sheet	-10.4159
▁swi	-10.4162
rings	-10.4163
▁PC	-10.4166
Num	-10.4171
▁tele	-10.4173
Columns	-10.4174
ota	-10.4174
▁fix	-10.4175
▁waiting	-10.4185
▁gather	-10.4188
sus	-10.4194
see	-10.4202
Metrics	-10.4207
Window	-10.421
▁conn	-10.4211
with	-10.4217
▁Even	-10.422
▁Number	-10.4222
▁Work	-10.4227
▁bright	-10.4234
▁communities	-10.4237
▁parser	-10.4243
▁cal	-10.4251
▁owners	-10.4254
▁enhance	-10.4254
▁numer	-10.4254
▁uses	-10.4255
res	-10.4255
>\	-10.4258
▁produced	-10.4267
▁Ind	-10.4272
SELECT	-10.4272
▁population	-10.4274
col	-10.4277
▁entrySet	-10.4283
techn	-10.4284
tz	-10.4287
▁UUID	-10.4288
elling	-10.4293
0_	-10.4295
89	-10.4303
acilities	-10.4307
▁Component	-10.4308
▁emb	-10.4317
DB	-10.4331
ph	-10.4334
▁refresh	-10.4335
▁Sy	-10.4339
▁arr	-10.4344
▁memor	-10.4344
▁flu	-10.4349
▁capital	-10.4351
▁getBytes	-10.4354
▁"}	-10.4359
model	-10.4362
ille	-10.4365
▁square	-10.4368
▁letter	-10.4375
lie	-10.4377
IP	-10.4387
Music	-10.4395
▁Mount	-10.4397
▁len	-10.4405
lack	-10.4408
ertise	-10.4409
error	-10.441
Gold	-10.4416
terr	-10.4418
so	-10.442
tainment	-10.4424
Only	-10.4426
harm	-10.4426
form	-10.4429
Profile	-10.443
'"	-10.443
▁Market	-10.4437
▁polic	-10.4438
Support	-10.4441
▁manufactur	-10.4447
▁volume	-10.4453
▁journal	-10.4455
Script	-10.4456
Namespace	-10.4457
ocol	-10.4458
▁callback	-10.4461
▁sm	-10.4464
▁Then	-10.4466
▁registration	-10.4466
▁medium	-10.4467
case	-10.4479
Phone	-10.4485
Validator	-10.4485
0"	-10.4488
sket	-10.4493
▁Attribute	-10.4505
▁exam	-10.4508
▁calendar	-10.4512
ressive	-10.4513
▁net	-10.4515
Selector	-10.4516
▁passed	-10.453
▁headers	-10.4531
bit	-10.4533
▁discussion	-10.4534
Control	-10.4537
Enum	-10.4541
▁moved	-10.4543
▁1,	-10.4545
aring	-10.4546
IN	-10.455
lin	-10.4553
▁installed	-10.4558
40	-10.4558
95	-10.4561
▁facility	-10.4562
▁imagin	-10.4563
tried	-10.4569
▁Calendar	-10.4569
▁deli	-10.4569
xac	-10.4571
▁Wh	-10.4571
▁miss	-10.4576
87	-10.4578
cup	-10.4578
▁operator	-10.4579
box	-10.4581
▁getStatus	-10.4585
▁acc	-10.4591
$1	-10.4593
gh	-10.4595
▁coverage	-10.4601
▁studies	-10.4607
▁chart	-10.4609
tch	-10.461
▁tx	-10.4616
Editor	-10.462
▁plugin	-10.4622
▁Hol	-10.4625
▁virtual	-10.4627
ze	-10.4629
▁Master	-10.4634
▁quarter	-10.4636
Color	-10.4638
▁audience	-10.464
▁Product	-10.4653
itness	-10.4656
▁Team	-10.4658
▁ta	-10.4659
wesome	-10.4661
▁Mini	-10.4662
▁minute	-10.4663
▁matcher	-10.4666
▁shipping	-10.4667
▁combination	-10.4668
Un	-10.4669
Empty	-10.4674
phone	-10.468
▁forget	-10.4688
▁presentation	-10.4691
iversity	-10.4691
▁Apple	-10.4694
James	-10.4698
▁tri	-10.4708
▁locations	-10.4715
Protocol	-10.4715
▁getData	-10.4717
lia	-10.4718
▁getResource	-10.4724
Condition	-10.4724
▁portal	-10.4726
nW	-10.4728
Executor	-10.4729
▁Order	-10.4734
▁Rock	-10.4736
▁institution	-10.4743
▁Institut	-10.4747
▁establish	-10.4749
▁followed	-10.4753
urrounding	-10.4753
</	-10.4757
ppre	-10.4764
▁affect	-10.4766
▁Mor	-10.4766
▁poll	-10.4768
▁units	-10.4771
ids	-10.4771
ble	-10.4774
▁dynamic	-10.4775
idential	-10.4775
▁secret	-10.478
▁Wal	-10.4784
life	-10.4786
▁agent	-10.4789
▁ByteArray	-10.4797
▁Find	-10.4803
lands	-10.4811
▁express	-10.4821
▁rs	-10.483
▁encode	-10.4831
▁cap	-10.4836
Space	-10.4838
Information	-10.4839
ord	-10.4844
13	-10.4846
▁replacement	-10.4848
▁compared	-10.4857
each	-10.4858
red	-10.486
group	-10.4861
db	-10.4863
▁Lea	-10.4872
▁HttpServlet	-10.4874
honor	-10.4875
cI	-10.4876
dollar	-10.4878
Headers	-10.488
Engine	-10.4889
▁winner	-10.4889
▁Download	-10.4892
iger	-10.4893
▁minimum	-10.4893
right	-10.4897
17	-10.4905
▁serving	-10.4913
▁startsWith	-10.4914
▁financ	-10.4916
Subscription	-10.4919
▁fat	-10.4921
▁setUp	-10.4926
▁Transaction	-10.4927
▁forEach	-10.4929
mail	-10.493
▁capture	-10.4935
▁spread	-10.494
thy	-10.4943
▁salt	-10.4945
-5	-10.4954
ottle	-10.4956
▁typ	-10.4957
▁fetch	-10.496
nger	-10.496
temporary	-10.4962
▁Point	-10.4962
nny	-10.498
▁execution	-10.4982
▁Ben	-10.4984
Run	-10.4985
li	-10.4987
▁highlight	-10.499
▁Cor	-10.4992
▁Foundation	-10.4997
af	-10.5
alone	-10.5013
-8	-10.5013
sky	-10.5013
▁agreement	-10.5016
▁approximate	-10.5019
▁involve	-10.5019
spective	-10.5021
▁TimeUnit	-10.5023
▁central	-10.5026
▁pea	-10.5027
▁Act	-10.5027
▁annotation	-10.503
ivil	-10.503
▁managed	-10.503
ella	-10.503
Next	-10.5033
oncern	-10.5035
▁Text	-10.5039
▁Top	-10.5043
▁windows	-10.5043
Domain	-10.5046
▁mail	-10.5046
ER	-10.506
ap	-10.5067
illa	-10.5068
Sql	-10.5071
ivity	-10.5071
▁spec	-10.5072
Parent	-10.5077
▁identity	-10.5077
▁components	-10.5081
▁ca	-10.5082
▁recover	-10.5083
Doc	-10.5084
tress	-10.5091
▁Ze	-10.5092
▁ones	-10.5106
▁cri	-10.5108
rprise	-10.5108
▁sources	-10.5109
▁connected	-10.5111
▁Rich	-10.5116
Elements	-10.5116
▁batch	-10.5123
▁combine	-10.5123
Notification	-10.5125
▁Ve	-10.5127
ju	-10.5128
▁environmental	-10.5129
oven	-10.5136
▁obtain	-10.5139
▁Ab	-10.514
last	-10.5141
inion	-10.5145
▁suitable	-10.5147
▁className	-10.5148
Xml	-10.5154
▁ByteBuffer	-10.5157
▁compareTo	-10.5163
19	-10.5164
▁sum	-10.5171
▁remaining	-10.5173
▁combined	-10.5174
▁Region	-10.5177
ured	-10.5183
▁states	-10.5183
ipped	-10.5186
▁operating	-10.519
ered	-10.519
▁utiliz	-10.519
uis	-10.52
urb	-10.5209
nK	-10.5211
▁father	-10.5211
▁directory	-10.5212
▁Big	-10.5216
eight	-10.5219
▁Cache	-10.5219
ester	-10.522
▁Status	-10.5227
▁Image	-10.523
▁Filter	-10.523
▁Che	-10.5232
Chinese	-10.5236
_0	-10.5237
ony	-10.5238
▁tail	-10.5238
▁Contact	-10.5238
XML	-10.524
olf	-10.525
▁Pat	-10.5252
▁equalTo	-10.5257
▁consist	-10.5257
ack	-10.5257
▁processing	-10.5257
tary	-10.5258
gage	-10.5262
ara	-10.5264
▁Del	-10.5272
▁USA	-10.5275
scape	-10.5277
▁visual	-10.5281
Cell	-10.5284
Expected	-10.5297
▁32	-10.53
izz	-10.53
ways	-10.53
▁Pre	-10.5302
ClassName	-10.5304
▁roll	-10.5305
▁Community	-10.5318
▁variable	-10.5319
Summary	-10.5322
bs	-10.5329
Device	-10.5329
point	-10.533
Category	-10.533
▁reliable	-10.5332
▁controller	-10.5336
ously	-10.5344
LC	-10.5346
▁getCurrent	-10.5349
-4	-10.5352
tal	-10.5359
60	-10.5363
▁dom	-10.5364
▁ALL	-10.5364
upon	-10.5365
tan	-10.5367
▁grade	-10.5367
▁tap	-10.5368
▁relative	-10.5374
▁library	-10.5384
▁fac	-10.539
▁getPath	-10.5393
▁registered	-10.5396
arl	-10.5397
▁"1"	-10.5403
▁Dis	-10.5403
ongs	-10.541
EO	-10.5411
select	-10.5415
▁2009	-10.5415
▁messages	-10.5415
▁inform	-10.5418
mark	-10.5421
rize	-10.5424
tics	-10.5426
matic	-10.5427
▁Local	-10.5428
Results	-10.543
▁FROM	-10.543
app	-10.5432
ti	-10.5436
Predicate	-10.5437
▁NO	-10.5438
▁Cloud	-10.5442
ets	-10.5443
▁chem	-10.5447
▁characters	-10.545
▁ear	-10.5455
rk	-10.5462
▁relevant	-10.5464
len	-10.5465
▁flavor	-10.547
Hash	-10.5473
▁mon	-10.5476
▁editor	-10.5476
▁timeout	-10.5485
▁evidence	-10.5486
▁committed	-10.5488
▁comp	-10.549
Validation	-10.5493
Single	-10.5494
iction	-10.5496
▁describe	-10.5498
▁bio	-10.5499
▁detailed	-10.55
nNo	-10.55
water	-10.5505
▁broad	-10.5506
cm	-10.5506
▁Up	-10.5515
alm	-10.5516
▁tableName	-10.5517
▁prefer	-10.5518
nThat	-10.552
▁changing	-10.5535
▁Mag	-10.5535
▁Nonnull	-10.5544
om	-10.5549
▁alternative	-10.5562
▁removed	-10.5565
▁workers	-10.5566
▁occur	-10.5567
ola	-10.557
▁pm	-10.557
▁Task	-10.5573
Database	-10.5578
▁newLine	-10.5587
▁pra	-10.5599
▁Create	-10.5599
yan	-10.56
SIZE	-10.5604
▁automatically	-10.5606
▁processes	-10.5608
ural	-10.5612
ality	-10.5612
▁cer	-10.5615
▁liferay	-10.5617
▁29	-10.562
lation	-10.5625
▁bigge	-10.5628
service	-10.563
start	-10.5632
nic	-10.5636
ents	-10.5638
nBe	-10.5639
▁opened	-10.5642
Assignment	-10.5649
▁allowing	-10.5652
▁Bu	-10.5655
▁Sil	-10.5659
▁Over	-10.5662
unk	-10.5665
▁Block	-10.5666
▁documents	-10.5667
▁listen	-10.5668
▁2008	-10.5674
▁Special	-10.5688
▁vehicles	-10.569
poke	-10.5691
map	-10.5694
▁jump	-10.5698
▁Development	-10.5698
▁repository	-10.5701
rote	-10.5706
▁Ed	-10.5707
Files	-10.5707
▁audio	-10.571
▁adding	-10.5711
Select	-10.5712
ole	-10.5718
ellow	-10.572
▁Expression	-10.5722
log	-10.5723
▁Online	-10.5727
ral	-10.5728
▁kill	-10.573
Args	-10.5731
ruit	-10.5737
code	-10.5742
▁radio	-10.5744
▁merge	-10.5748
▁Indi	-10.5749
▁proper	-10.5753
html	-10.5754
▁Are	-10.5759
▁threa	-10.576
xperiences	-10.576
unning	-10.5764
ancy	-10.5768
▁Amazon	-10.5771
▁70	-10.5774
▁Mal	-10.578
itizen	-10.5782
▁focused	-10.5782
gery	-10.5783
iz	-10.5789
akes	-10.5789
▁Right	-10.5796
▁entries	-10.5799
lines	-10.5809
`	-10.5814
|	-10.5821
▁wif	-10.5825
▁relationships	-10.583
Authentication	-10.5831
localhost	-10.584
▁conversation	-10.5842
vest	-10.5843
mming	-10.5845
▁condu	-10.5849
▁INSTANCE	-10.5853
rney	-10.5856
aches	-10.5864
▁Mat	-10.5866
▁contain	-10.587
▁failure	-10.5871
Counter	-10.5876
▁definition	-10.588
▁battery	-10.5888
▁folder	-10.5888
▁Ph	-10.5892
▁conven	-10.5894
▁Http	-10.5895
▁accessor	-10.5897
▁proxy	-10.5897
Binding	-10.5898
▁agency	-10.5899
java	-10.5901
▁View	-10.5903
▁bundle	-10.5903
ppearance	-10.5906
lan	-10.5917
aged	-10.5917
▁Pair	-10.5917
▁stores	-10.5919
▁older	-10.5925
▁sand	-10.5926
▁joined	-10.5928
▁studio	-10.5932
▁Int	-10.5932
▁resolution	-10.5934
unt	-10.594
▁organisation	-10.5942
lectronic	-10.5945
▁TO	-10.5948
▁Word	-10.5961
▁"[	-10.5961
ports	-10.5963
nAn	-10.5963
14	-10.5965
▁busy	-10.5971
▁Den	-10.5975
▁Mil	-10.5977
▁stack	-10.5982
▁instant	-10.5989
▁mental	-10.5995
null	-10.5997
essor	-10.6
Items	-10.6004
Desc	-10.6012
▁Android	-10.6012
▁Account	-10.6014
ami	-10.6016
Do	-10.6022
estic	-10.6023
▁segment	-10.6023
ail	-10.6029
ky	-10.6032
ru	-10.6034
▁errors	-10.6036
▁distinct	-10.6039
itive	-10.6039
35	-10.6039
▁behavior	-10.6041
hu	-10.6045
▁Other	-10.6045
▁Central	-10.6045
Nodes	-10.6047
front	-10.6047
▁district	-10.6056
▁Play	-10.606
▁adjust	-10.6066
ff	-10.6067
▁smaller	-10.6068
:"	-10.6071
ults	-10.6078
volution	-10.6078
▁collaborat	-10.6078
west	-10.6088
▁recommended	-10.6089
ndian	-10.6089
Dialog	-10.6099
ater	-10.6099
result	-10.6107
▁properly	-10.611
▁expr	-10.6112
pending	-10.6112
can	-10.6114
Title	-10.6115
uff	-10.6115
▁TYPE	-10.6117
nis	-10.6123
Open	-10.6127
▁applied	-10.6128
▁Twitter	-10.6129
▁skip	-10.6145
umb	-10.6146
▁compre	-10.6149
▁seconds	-10.615
▁employee	-10.6151
olk	-10.6151
▁Van	-10.6157
▁Ale	-10.6162
▁Cam	-10.6174
▁getUser	-10.6175
▁forms	-10.6176
▁initiat	-10.618
▁fixed	-10.618
car	-10.6198
Admin	-10.6199
Hello	-10.6202
application	-10.6202
gun	-10.6203
▁Form	-10.6209
▁Cap	-10.6209
▁sponsor	-10.6211
mar	-10.6214
▁upload	-10.6215
▁div	-10.622
Before	-10.6222
avi	-10.6225
▁signal	-10.6228
▁trail	-10.6228
client	-10.6229
Registration	-10.6233
▁Basic	-10.6234
power	-10.6235
▁accura	-10.6238
say	-10.6239
▁actions	-10.624
▁scheduled	-10.6254
▁Mark	-10.6256
▁Future	-10.6263
▁Public	-10.6263
xecutive	-10.6264
▁listing	-10.6265
▁diver	-10.6268
▁processor	-10.6268
▁entr	-10.6274
▁summ	-10.6278
gas	-10.6283
▁instrument	-10.6293
▁kubernetes	-10.6294
▁Win	-10.6295
▁Bean	-10.63
▁looked	-10.6301
▁facilit	-10.6305
cheese	-10.6314
strate	-10.6315
Route	-10.6316
▁Room	-10.6316
mock	-10.6328
▁flush	-10.6328
Events	-10.633
▁creation	-10.6333
▁Media	-10.6334
trial	-10.6345
Period	-10.6347
▁integrate	-10.6358
▁trial	-10.6358
▁Soci	-10.6361
▁strategies	-10.6364
Boolean	-10.6367
Groups	-10.6368
ills	-10.6369
▁raise	-10.6374
ym	-10.6375
96	-10.6383
▁foo	-10.6384
▁SQL	-10.6385
nNow	-10.6385
▁factors	-10.6386
tures	-10.6388
▁birthday	-10.6392
Conf	-10.6393
▁audit	-10.6395
▁initialize	-10.6405
▁joint	-10.6406
▁Index	-10.6406
cial	-10.6407
Failure	-10.6408
lang	-10.6408
hood	-10.6409
efficien	-10.6418
Import	-10.6422
▁await	-10.6429
▁quote	-10.6435
▁Cha	-10.6436
Hall	-10.6441
▁locale	-10.6442
▁getObject	-10.6446
▁filled	-10.6462
▁styl	-10.6463
▁Store	-10.6463
BC	-10.6467
rail	-10.6473
Product	-10.6473
▁Code	-10.6474
▁permission	-10.6476
oo	-10.6483
▁username	-10.6488
Classes	-10.6491
Obj	-10.6492
▁frequent	-10.6496
▁opt	-10.6498
rus	-10.6499
cle	-10.6504
200	-10.6504
▁District	-10.6509
Equals	-10.6512
▁shall	-10.6514
History	-10.6522
arm	-10.6524
▁producer	-10.6524
▁pin	-10.6528
▁35	-10.6531
▁Locale	-10.6532
24	-10.6537
host	-10.6537
▁semi	-10.6539
Press	-10.6539
▁getText	-10.6548
▁2000	-10.6549
▁consistent	-10.6549
los	-10.6552
▁Bill	-10.6554
▁Collectors	-10.6554
▁Target	-10.6557
ez	-10.6557
Phi	-10.6561
Snapshot	-10.6562
Per	-10.6566
▁featur	-10.6567
Missing	-10.6568
ception	-10.657
▁supplie	-10.6573
▁deck	-10.6575
▁JSON	-10.6583
▁runs	-10.6585
▁fl	-10.6588
▁width	-10.6597
Layer	-10.6601
add	-10.6601
oral	-10.6607
▁Read	-10.6611
▁indexOf	-10.6611
('	-10.6611
▁federa	-10.6614
▁leaves	-10.6617
con	-10.662
ji	-10.6621
ones	-10.6628
Bundle	-10.663
Beans	-10.6634
compl	-10.6635
▁circu	-10.6635
ita	-10.6644
bia	-10.6645
▁advertis	-10.6646
earth	-10.6648
▁appe	-10.6649
Usage	-10.6658
eek	-10.6663
▁negative	-10.6667
lly	-10.667
▁Span	-10.6676
▁api	-10.6677
▁registry	-10.6677
nG	-10.6679
▁examin	-10.668
▁"{	-10.6681
ould	-10.6682
▁sequence	-10.6688
ey	-10.6699
mb	-10.6703
▁sto	-10.6705
▁Result	-10.6705
Integer	-10.6707
▁Token	-10.6709
Width	-10.6711
▁decode	-10.6723
▁insight	-10.6723
rgin	-10.6725
▁emergency	-10.6726
val	-10.6729
▁shift	-10.6732
▁feedback	-10.6732
▁supports	-10.6734
▁gallery	-10.674
▁lea	-10.674
di	-10.6741
ric	-10.6744
▁thu	-10.6749
▁updates	-10.6749
cer	-10.675
▁IS	-10.6758
▁Mont	-10.676
▁Fire	-10.676
▁Idea	-10.6762
tern	-10.6767
ocket	-10.6767
fection	-10.6775
ates	-10.6777
Commission	-10.6783
▁valu	-10.6784
▁upgrade	-10.6785
▁exist	-10.6788
▁trees	-10.679
▁Row	-10.6791
lose	-10.6793
▁pa	-10.6793
▁wasn	-10.6794
down	-10.6795
▁providers	-10.6797
ibility	-10.6798
▁signed	-10.6807
▁rank	-10.6807
ntal	-10.681
Pos	-10.681
Post	-10.6813
oys	-10.6816
▁Ne	-10.6821
▁funding	-10.6824
Grand	-10.6825
Edge	-10.6827
che	-10.6827
utter	-10.6829
▁leav	-10.6838
▁timestamp	-10.6842
rose	-10.6842
▁import	-10.6846
PS	-10.6852
▁Parameter	-10.6856
▁upper	-10.6858
tton	-10.6858
▁developer	-10.6859
Stack	-10.6865
Shop	-10.6866
▁getParent	-10.6866
<	-10.6867
Auth	-10.6871
Detail	-10.6872
hel	-10.6874
▁dev	-10.6877
▁candidate	-10.688
apid	-10.6889
▁Operation	-10.689
efully	-10.6897
▁ship	-10.6903
▁confidence	-10.6909
aid	-10.691
Matcher	-10.6911
▁dead	-10.6913
formed	-10.6913
▁para	-10.6914
▁rep	-10.6916
▁Iterable	-10.6916
NY	-10.6918
▁delivered	-10.6922
▁arrange	-10.6933
fit	-10.6936
Supplier	-10.6944
▁Gra	-10.6952
lind	-10.6952
▁subscription	-10.6953
ari	-10.6954
▁sch	-10.6959
▁signature	-10.6969
aging	-10.6973
▁Live	-10.6979
▁fi	-10.6981
brain	-10.6981
wise	-10.6983
level	-10.6984
▁raised	-10.6986
▁calls	-10.6987
▁promise	-10.6991
▁manual	-10.7001
abin	-10.7003
lumin	-10.7004
agement	-10.7009
Way	-10.7014
Many	-10.7018
shot	-10.7019
▁Record	-10.7019
▁admin	-10.7024
More	-10.7024
▁choices	-10.7031
ntage	-10.7032
ero	-10.7034
hen	-10.7037
▁foreign	-10.7039
Logger	-10.704
▁caused	-10.704
▁cha	-10.7042
Memory	-10.7046
▁Exchange	-10.7048
thern	-10.7049
iron	-10.7054
rison	-10.7055
▁Sal	-10.7062
▁45	-10.7069
icity	-10.7071
▁native	-10.7074
Term	-10.7075
▁fur	-10.7076
oy	-10.7077
▁logo	-10.7079
Should	-10.7084
tra	-10.7085
▁UN	-10.7087
BA	-10.7087
ona	-10.7089
Box	-10.7091
▁speaker	-10.7092
nH	-10.7097
lam	-10.7103
▁claims	-10.7104
▁Standard	-10.7105
US	-10.712
▁export	-10.7122
CA	-10.7122
▁calling	-10.7126
Metric	-10.7127
▁Wil	-10.7128
During	-10.7129
-6	-10.7129
base	-10.7134
▁policies	-10.7135
▁wi	-10.7136
eau	-10.714
▁buyer	-10.7145
▁tab	-10.7145
Literal	-10.7148
▁participants	-10.7149
▁Fo	-10.7149
Statistics	-10.715
▁distribution	-10.7152
Setting	-10.7156
mort	-10.7173
rank	-10.7174
▁Look	-10.718
Payload	-10.7182
▁MediaType	-10.7188
dance	-10.719
▁curr	-10.7193
▁performed	-10.7197
anta	-10.7199
ying	-10.72
▁exit	-10.7201
grammarAccess	-10.7202
▁Tri	-10.7204
traction	-10.7205
▁0.0	-10.7208
▁Microsoft	-10.7209
▁attempt	-10.7209
trained	-10.721
lies	-10.7213
eleg	-10.7217
Two	-10.7218
▁Head	-10.7229
▁boost	-10.723
▁tasks	-10.723
▁keySet	-10.7231
ify	-10.7232
▁fes	-10.7233
▁adve	-10.7233
SA	-10.7236
▁Price	-10.7237
ache	-10.724
▁Lin	-10.7241
▁na	-10.7247
gram	-10.725
▁Command	-10.7252
ships	-10.7252
favourite	-10.7253
▁Family	-10.7258
opt	-10.7261
IO	-10.7263
Load	-10.7281
Copy	-10.7285
tigation	-10.7286
▁Every	-10.729
Queen	-10.7293
▁desire	-10.7298
rief	-10.7299
▁Spi	-10.73
▁fileName	-10.7301
▁Serializable	-10.7302
00	-10.7308
▁depending	-10.7312
▁importance	-10.7318
ger	-10.7318
api	-10.732
▁pl	-10.7325
▁procedure	-10.7326
▁Centr	-10.7327
▁Update	-10.7332
▁OK	-10.734
▁Column	-10.7341
▁suite	-10.7343
▁HD	-10.7344
▁presence	-10.7347
Home	-10.7348
▁Sta	-10.7349
▁Photo	-10.7351
▁criteria	-10.7352
▁bridge	-10.7354
▁episode	-10.7354
ho	-10.7357
ClassLoader	-10.7358
bi	-10.736
▁columns	-10.7363
4.	-10.7363
▁Social	-10.737
▁mapping	-10.7371
▁browser	-10.7371
tainable	-10.7372
▁election	-10.7373
▁stackSize	-10.7375
nie	-10.7379
vesti	-10.7388
arch	-10.7389
▁auth	-10.739
Up	-10.7392
▁lookup	-10.7393
▁isSet	-10.7393
▁resid	-10.7394
owned	-10.7397
▁scheme	-10.7401
▁previously	-10.7402
▁topics	-10.7402
▁covers	-10.7403
▁Step	-10.7407
▁happened	-10.7408
Government	-10.7421
Height	-10.7422
adian	-10.7426
▁recovery	-10.7428
ssistance	-10.7439
ther	-10.7441
▁ja	-10.7444
▁Tuple	-10.7453
▁spin	-10.7453
▁Person	-10.7455
><	-10.7456
lake	-10.7456
▁dep	-10.7458
▁ma	-10.7459
▁bucket	-10.746
Buy	-10.7461
site	-10.7462
▁AS	-10.7467
lli	-10.7468
ut	-10.7474
▁span	-10.748
About	-10.7481
AT	-10.7484
▁Grid	-10.7485
mber	-10.7486
stries	-10.7486
▁shade	-10.7487
maker	-10.7492
▁sink	-10.7493
▁Hop	-10.7494
cid	-10.7495
▁monthly	-10.7496
mili	-10.7497
Span	-10.7502
▁tur	-10.751
▁argument	-10.7515
uggle	-10.7524
▁va	-10.7527
▁priority	-10.7528
▁Control	-10.7528
hang	-10.7533
Site	-10.7535
Segment	-10.7538
aching	-10.754
▁permanent	-10.7545
▁197	-10.7548
▁assessment	-10.7551
CC	-10.7552
▁payload	-10.7554
Byte	-10.7558
▁approved	-10.7563
▁hous	-10.7565
vo	-10.7565
▁objects	-10.7566
▁measure	-10.7567
▁serialize	-10.757
▁pow	-10.7571
HP	-10.7574
ciate	-10.7575
▁CA	-10.7578
▁Tur	-10.7581
▁species	-10.7582
▁Plus	-10.7585
Identity	-10.7586
pa	-10.7589
▁II	-10.759
ultim	-10.7591
▁Pan	-10.7593
0%	-10.7595
▁objective	-10.7598
how	-10.7601
▁border	-10.7612
▁arguments	-10.7615
▁literal	-10.7616
Used	-10.7616
▁Lor	-10.7623
▁vo	-10.7623
▁FOLLOW	-10.7629
Comparison	-10.7629
▁viol	-10.763
art	-10.7632
▁scan	-10.7633
dor	-10.7635
▁carrie	-10.764
lace	-10.764
overs	-10.7644
▁sal	-10.7644
sport	-10.7645
▁trigger	-10.7651
▁depth	-10.7654
page	-10.7654
ances	-10.7658
size	-10.7658
▁Process	-10.766
▁Level	-10.7661
telli	-10.7661
▁sw	-10.7664
MetaData	-10.7665
Resources	-10.7665
▁posts	-10.7666
Changed	-10.767
Char	-10.7672
ground	-10.7675
sponsibility	-10.7677
zer	-10.7679
▁notes	-10.7681
ises	-10.7684
nt	-10.7685
▁interface	-10.7686
▁branch	-10.7689
ngineering	-10.7691
▁cells	-10.7691
▁Medical	-10.7694
▁err	-10.7696
Selection	-10.7696
▁factor	-10.77
▁Tag	-10.7701
▁Fes	-10.7702
Topic	-10.7702
ep	-10.7709
▁Sh	-10.771
▁surv	-10.7716
▁candidates	-10.7719
▁pen	-10.7721
gence	-10.7725
ainless	-10.7726
OR	-10.7732
uri	-10.7733
PATH	-10.7739
direct	-10.774
▁compute	-10.7743
▁drivers	-10.7751
cute	-10.776
eath	-10.7761
berg	-10.7763
Depth	-10.7765
▁Gr	-10.7766
don	-10.7773
Technology	-10.7778
▁representative	-10.7778
▁delay	-10.778
string	-10.7784
▁300	-10.7787
▁"</	-10.7788
tant	-10.7791
ging	-10.7794
taining	-10.7796
▁kernel	-10.7797
▁Mass	-10.7801
▁Tour	-10.7803
▁mapper	-10.7808
▁Fi	-10.7808
uses	-10.7811
▁dir	-10.7815
▁continu	-10.7818
cient	-10.7819
cc	-10.7819
▁extended	-10.782
lon	-10.7821
arriage	-10.7825
▁Ob	-10.783
▁Part	-10.7834
Split	-10.7834
Declaration	-10.7835
▁tile	-10.7835
dating	-10.7835
▁Cat	-10.7838
Constraint	-10.7839
Vector	-10.7842
▁dra	-10.7842
▁foundation	-10.7843
▁bitField	-10.7845
backtracking	-10.7849
26	-10.785
▁phase	-10.7852
ON	-10.7859
read	-10.7863
▁edition	-10.7863
aware	-10.7866
▁IP	-10.7871
▁quiet	-10.7877
▁"]	-10.7879
▁implementation	-10.7886
hand	-10.7893
MS	-10.7894
▁API	-10.7895
▁Committee	-10.7897
Non	-10.7899
▁pot	-10.7899
▁Annotation	-10.7904
2)	-10.7904
nWh	-10.7906
server	-10.7908
Codec	-10.7908
Vertex	-10.7908
Required	-10.7909
Case	-10.7911
Food	-10.7914
nder	-10.7915
▁consumers	-10.7917
▁rows	-10.7926
iness	-10.7926
Price	-10.7927
PortalException	-10.7929
▁magic	-10.793
▁ok	-10.7931
tub	-10.7934
▁XML	-10.7934
Network	-10.7939
▁getPersistence	-10.7939
▁2007	-10.7939
VO	-10.7939
orrow	-10.794
nJ	-10.7941
▁tables	-10.7941
▁chosen	-10.7947
▁toArray	-10.7948
▁contribution	-10.7951
▁reward	-10.7953
▁Series	-10.7957
OK	-10.7957
hat	-10.796
▁catalog	-10.7965
▁Information	-10.7967
▁Ignite	-10.7968
epre	-10.7971
▁idx	-10.7972
▁perf	-10.7972
▁reached	-10.7973
FILE	-10.7975
hall	-10.7976
cabi	-10.7978
ising	-10.798
▁medic	-10.7982
▁login	-10.7985
▁famili	-10.7985
▁workflow	-10.7987
▁enabled	-10.7988
equalsIgnoreCase	-10.7992
▁singletonList	-10.7993
▁Full	-10.7998
▁"(	-10.7998
▁broker	-10.7999
urrentTimeMillis	-10.8
hip	-10.8003
▁Multi	-10.8007
rance	-10.8007
heatre	-10.8009
▁dataset	-10.801
apan	-10.8013
Chain	-10.8014
▁estimate	-10.8014
ening	-10.8016
▁qualified	-10.8018
ST	-10.8018
▁Machine	-10.8019
\":\"	-10.8019
▁deposit	-10.802
▁educat	-10.8025
▁successfully	-10.8027
Current	-10.8029
nine	-10.8032
▁Demo	-10.8032
▁pat	-10.8035
▁Report	-10.8037
scar	-10.8038
▁proceed	-10.8041
▁expense	-10.8049
▁otherwise	-10.8049
▁Log	-10.8054
▁2,	-10.8062
▁usage	-10.8069
▁stretch	-10.8071
);	-10.8073
▁instructions	-10.8076
▁Under	-10.808
Uuid	-10.8081
▁guess	-10.809
▁tmp	-10.8092
ego	-10.8093
rystal	-10.8098
▁explor	-10.81
▁symbol	-10.81
▁minor	-10.8103
▁drawing	-10.8105
than	-10.811
▁Sub	-10.8114
tes	-10.8116
Dataset	-10.812
▁Tree	-10.812
▁functions	-10.8122
31	-10.8122
ages	-10.8123
lt	-10.8123
-3	-10.8124
Messages	-10.8125
ct	-10.8127
Visitor	-10.8133
▁Custom	-10.8134
ics	-10.8136
▁organize	-10.8136
▁StringBundler	-10.8136
▁sha	-10.814
ave	-10.8141
oga	-10.8143
ering	-10.8145
▁roles	-10.8146
▁sync	-10.8146
▁hardware	-10.8147
Bucket	-10.8148
▁alert	-10.8153
▁Support	-10.8154
▁findBy	-10.8156
Alias	-10.816
urt	-10.8162
Props	-10.8163
▁coupon	-10.8165
▁edit	-10.8168
Binary	-10.8169
▁Duration	-10.817
▁protein	-10.8171
▁AM	-10.8177
weight	-10.8179
▁chat	-10.8181
▁Channel	-10.8187
02	-10.8188
DAO	-10.819
▁specialize	-10.8194
titude	-10.82
unge	-10.8202
dium	-10.8206
SE	-10.8211
▁texture	-10.8215
ek	-10.8217
{	-10.8219
ison	-10.8224
source	-10.8225
▁Like	-10.8226
even	-10.8227
▁PM	-10.8228
Middle	-10.823
▁1.0	-10.8231
Connector	-10.8231
nch	-10.8235
bber	-10.8242
▁supporting	-10.8243
▁Pu	-10.8247
▁isPresent	-10.8249
plate	-10.825
minal	-10.826
▁heal	-10.8261
lief	-10.8264
▁Net	-10.8265
Prop	-10.8271
bration	-10.8276
stors	-10.8277
node	-10.8281
▁trace	-10.8292
II	-10.8293
▁","	-10.8294
abi	-10.8295
1)	-10.8295
Records	-10.8298
Min	-10.83
▁Union	-10.8302
▁GET	-10.8305
ouble	-10.8307
▁'"	-10.8311
ulations	-10.8313
shes	-10.8313
female	-10.8314
Driver	-10.8318
▁Student	-10.8319
▁stats	-10.8323
Which	-10.8324
while	-10.8324
nShe	-10.8326
Based	-10.8328
Col	-10.8328
IT	-10.8332
arned	-10.8332
▁JSONObject	-10.8332
▁certifi	-10.8335
▁Tom	-10.8337
LED	-10.8337
▁dia	-10.8337
spir	-10.8338
▁Library	-10.8341
▁bon	-10.8342
▁Main	-10.8343
▁tags	-10.8347
cities	-10.835
Pre	-10.8356
▁APPLICATION	-10.8357
crat	-10.8357
▁Two	-10.8363
▁birth	-10.8364
aven	-10.8365
xba	-10.8366
▁measures	-10.8367
▁flag	-10.8369
22	-10.8369
Active	-10.8369
ime	-10.8371
cast	-10.8376
▁transition	-10.8376
DA	-10.8379
▁orders	-10.8382
version	-10.8383
improv	-10.8384
oting	-10.8385
Authorization	-10.8386
▁mine	-10.839
Persistence	-10.8392
▁bear	-10.8399
▁prompt	-10.8404
▁getTime	-10.8404
▁hole	-10.8414
▁truth	-10.8416
suit	-10.8417
turned	-10.8417
▁passi	-10.8421
Build	-10.8427
ou	-10.8434
▁ci	-10.8437
▁vacation	-10.8437
ards	-10.8438
index	-10.8441
▁articles	-10.8444
Msg	-10.8449
stream	-10.8452
▁origin	-10.846
AL	-10.8463
AC	-10.8466
▁sl	-10.8467
ltra	-10.8469
▁Men	-10.8473
▁cancel	-10.8476
nN	-10.8478
Both	-10.8482
yellow	-10.8483
21	-10.8483
▁slot	-10.8488
Go	-10.8489
04	-10.8489
Simple	-10.849
Remove	-10.8494
Grid	-10.8495
▁exact	-10.8497
Custom	-10.85
improved	-10.8501
▁Float	-10.8501
Commit	-10.851
default	-10.8512
▁Organization	-10.8512
ki	-10.8512
contractor	-10.8512
alco	-10.8518
lph	-10.8521
IS	-10.8524
UI	-10.8527
Close	-10.8538
▁dist	-10.8541
27	-10.8549
wareness	-10.8551
ren	-10.8553
ished	-10.8554
tto	-10.8554
▁Review	-10.8557
▁rear	-10.8558
▁pipeline	-10.8558
▁EMPTY	-10.8558
Energy	-10.8562
profi	-10.8563
▁twe	-10.8564
▁ImmutableMap	-10.8564
Http	-10.8564
Owner	-10.8568
▁Execution	-10.8568
▁holding	-10.8569
max	-10.8573
▁Pay	-10.8574
▁Journal	-10.8578
▁Guide	-10.8581
▁therapy	-10.8585
▁doub	-10.8585
alent	-10.8589
ani	-10.8592
Camp	-10.8593
sistance	-10.8596
ories	-10.8599
Tags	-10.8606
ker	-10.8606
▁ven	-10.8611
▁descriptor	-10.8613
▁solve	-10.8614
▁neighborhood	-10.8614
eg	-10.8615
▁accord	-10.8619
▁Chr	-10.8619
▁Short	-10.8621
▁notification	-10.8623
Complete	-10.8627
▁infrastructure	-10.8633
▁clinical	-10.8633
▁ceiling	-10.8642
▁gro	-10.8644
▁Manager	-10.8644
▁Internal	-10.8645
▁STRING	-10.8647
create	-10.8648
ok	-10.865
▁principal	-10.8651
Japanese	-10.8656
▁victim	-10.8656
hl	-10.8656
br	-10.8658
NO	-10.866
▁communicat	-10.8662
presented	-10.8671
rah	-10.8672
nDe	-10.8679
abilities	-10.8681
DataSource	-10.8682
sibilities	-10.8683
▁Jan	-10.8685
▁Access	-10.869
92	-10.8692
▁renew	-10.8694
▁asset	-10.8695
▁tu	-10.8704
ique	-10.8709
usi	-10.871
dens	-10.8713
▁caught	-10.8717
Can	-10.8719
▁Flow	-10.8723
▁Pra	-10.8723
og	-10.8724
▁getSource	-10.8728
Var	-10.8733
▁CD	-10.8733
from	-10.8741
An	-10.8742
tune	-10.8743
▁styles	-10.8744
▁rel	-10.8745
ented	-10.8749
▁Place	-10.8749
▁Mic	-10.875
▁membership	-10.8754
91	-10.8757
▁aid	-10.8759
▁backup	-10.8764
Earth	-10.8766
▁historical	-10.8771
▁concrete	-10.8775
lot	-10.8779
▁hosting	-10.8782
▁sing	-10.8785
▁sessions	-10.8787
Encoding	-10.8789
▁Los	-10.8795
Comment	-10.8801
flexible	-10.8803
yers	-10.8803
▁newBuilder	-10.8803
▁Join	-10.8805
▁logger	-10.8805
FIELD	-10.8811
live	-10.8811
▁Back	-10.8812
war	-10.8813
▁KEY	-10.8818
met	-10.8818
▁extensi	-10.8832
azz	-10.8835
ital	-10.8835
ped	-10.8838
▁accounts	-10.8848
Multi	-10.885
▁ignore	-10.885
▁resume	-10.8851
▁Sp	-10.8854
▁saved	-10.8859
ini	-10.8861
▁Condition	-10.8863
▁fieldName	-10.8864
▁nodes	-10.8865
▁trans	-10.8866
flow	-10.8867
present	-10.8872
Sync	-10.8878
03	-10.8878
Valid	-10.8886
▁bread	-10.8894
▁routine	-10.8901
▁apps	-10.8901
fts	-10.8911
tro	-10.8916
▁OF	-10.8919
lb	-10.892
▁Ven	-10.8922
whatever	-10.8923
olin	-10.8923
Bar	-10.8923
▁contribute	-10.8927
dation	-10.8931
▁outstanding	-10.8932
Web	-10.8938
Global	-10.8939
▁owned	-10.8942
wor	-10.8943
▁accessible	-10.895
hil	-10.8954
▁Reg	-10.8959
Exists	-10.8961
ommitment	-10.8961
Score	-10.8963
▁Old	-10.8963
bus	-10.8968
commission	-10.8968
Land	-10.8969
▁Common	-10.8971
▁enterprise	-10.8971
omb	-10.8971
you	-10.8973
hai	-10.8974
5.	-10.8974
corporat	-10.8976
zen	-10.8978
rderByComparator	-10.8982
trategic	-10.8986
▁Smith	-10.8987
limb	-10.8992
tile	-10.8995
▁admi	-10.9003
2005	-10.9011
nL	-10.9012
▁eth	-10.9012
▁administration	-10.9014
Ip	-10.9016
▁jj	-10.9016
▁mi	-10.9019
hes	-10.9021
cted	-10.9023
xec	-10.9025
▁accepted	-10.9026
▁grant	-10.9027
TC	-10.9037
▁patterns	-10.9037
▁zip	-10.9045
▁42	-10.9047
anner	-10.9048
▁mirror	-10.9052
greatest	-10.9052
▁zone	-10.9053
▁Wa	-10.9054
liability	-10.9056
rns	-10.9061
▁privacy	-10.9062
▁400	-10.9067
Tab	-10.9071
nFrom	-10.9074
VERSION	-10.9074
va	-10.9079
▁Ant	-10.9082
chest	-10.9084
▁regulat	-10.9086
ades	-10.9089
Lookup	-10.9095
▁printStackTrace	-10.9096
▁destroy	-10.9099
▁advise	-10.9099
nRe	-10.91
ica	-10.91
column	-10.9103
▁Extension	-10.9104
▁starts	-10.9108
scent	-10.9109
▁Java	-10.9109
Tracker	-10.911
▁calculate	-10.9111
▁prev	-10.9112
ushing	-10.913
sis	-10.9133
sub	-10.9133
▁render	-10.9137
▁getContext	-10.914
Creator	-10.9141
▁snapshot	-10.9144
▁Ji	-10.9148
ES	-10.9152
▁extend	-10.9156
ode	-10.9159
▁booking	-10.916
▁recording	-10.9165
▁princip	-10.9168
55	-10.917
▁hidden	-10.9173
Right	-10.9176
▁none	-10.9179
Rows	-10.9184
▁Fra	-10.9185
gate	-10.9192
▁refer	-10.9199
iff	-10.9199
RE	-10.9208
Language	-10.9212
▁poly	-10.9214
ata	-10.9217
▁seal	-10.9221
iest	-10.9222
▁duration	-10.9224
▁clock	-10.9225
immer	-10.9226
lets	-10.923
PREFIX	-10.9235
thes	-10.9235
▁broken	-10.9236
▁Line	-10.9237
rass	-10.9238
cycle	-10.924
▁getFile	-10.9244
▁exec	-10.9245
▁getContextType	-10.9245
EU	-10.9252
▁Spa	-10.9255
▁generated	-10.9257
illian	-10.9259
▁emptyList	-10.926
▁cm	-10.9262
▁mom	-10.927
ely	-10.9273
putation	-10.9276
▁EasyMock	-10.9276
▁ended	-10.9277
chi	-10.9278
▁prove	-10.9278
▁spaces	-10.9279
▁Item	-10.9281
ppliance	-10.9286
▁removal	-10.9286
▁Site	-10.9289
culty	-10.929
orce	-10.929
▁Ten	-10.929
▁restore	-10.9293
▁metric	-10.9293
Management	-10.9295
Security	-10.9295
ens	-10.9296
▁challeng	-10.9302
▁2.0	-10.9304
Stop	-10.9306
▁physic	-10.9308
▁Source	-10.9309
link	-10.9313
▁metrics	-10.9316
▁"@	-10.9317
1/2	-10.9326
▁Cl	-10.933
dies	-10.933
▁getMax	-10.9332
▁")	-10.9336
▁optional	-10.9337
hick	-10.9341
Keyword	-10.9341
▁matching	-10.9342
Pad	-10.9346
mi	-10.9346
encing	-10.9346
what	-10.9351
▁researcher	-10.9354
▁Trust	-10.936
▁Col	-10.9362
ened	-10.9363
-2	-10.9364
Remote	-10.9368
▁radi	-10.9368
Day	-10.9373
▁Through	-10.9374
Argument	-10.9378
Section	-10.9381
▁intValue	-10.9381
exico	-10.9382
script	-10.9387
▁Range	-10.9388
rais	-10.939
▁discovered	-10.9391
Living	-10.9392
cWe	-10.9393
Ho	-10.9393
▁incident	-10.9394
view	-10.94
23	-10.94
txt	-10.9403
Finally	-10.9405
var	-10.941
▁pipe	-10.9411
▁Eco	-10.9412
cut	-10.9412
▁pitch	-10.9413
Clause	-10.9416
▁positions	-10.9416
AS	-10.9421
▁escape	-10.9423
▁Mono	-10.9425
pro	-10.9426
▁defend	-10.9428
▁affected	-10.9436
oman	-10.9437
▁Storage	-10.9442
▁Week	-10.9444
▁DateTime	-10.9445
▁cmd	-10.9449
▁bond	-10.9452
▁Graph	-10.9452
▁connector	-10.9454
▁toLowerCase	-10.9458
play	-10.9459
config	-10.946
ski	-10.9461
▁Conference	-10.9465
Pair	-10.9465
element	-10.9466
▁choos	-10.9474
▁unless	-10.9476
API	-10.9478
300	-10.9481
Cloud	-10.9482
▁defaultValue	-10.9486
Widget	-10.9488
▁drain	-10.9488
Credentials	-10.9488
tmosphere	-10.9488
▁purchas	-10.9489
painting	-10.949
hoo	-10.9491
lence	-10.9492
▁intended	-10.9495
▁machines	-10.9496
▁described	-10.9499
▁getContent	-10.9499
FileName	-10.95
▁getRequest	-10.9501
poli	-10.9502
▁returned	-10.9503
▁lif	-10.9504
▁vendor	-10.9509
▁commerce	-10.9521
▁Constants	-10.9522
false	-10.9522
river	-10.9524
ils	-10.9525
Runtime	-10.9528
any	-10.9531
▁expectations	-10.9532
▁nearby	-10.9533
Any	-10.9545
▁certificate	-10.9547
▁procedures	-10.9551
sister	-10.9553
bra	-10.9554
▁Keep	-10.9556
▁holds	-10.9556
Book	-10.9559
▁Video	-10.9561
Trigger	-10.9566
ag	-10.9568
▁sol	-10.9569
ria	-10.9569
▁VO	-10.9571
▁identifier	-10.9572
UUID	-10.9572
nAl	-10.9575
▁Cross	-10.9576
▁html	-10.9578
▁48	-10.9581
volving	-10.9586
Interceptor	-10.9587
ander	-10.9588
verse	-10.9589
▁statistics	-10.9592
▁finger	-10.9592
▁Rest	-10.9593
▁Cu	-10.9595
▁setId	-10.9595
Transform	-10.9598
▁stored	-10.96
ven	-10.9604
ggs	-10.9604
▁Bro	-10.9611
reams	-10.9614
Runner	-10.9614
ups	-10.9617
ains	-10.9617
aya	-10.962
Delegate	-10.9622
▁reduced	-10.9622
▁Sql	-10.9626
></	-10.9627
TIME	-10.9629
count	-10.963
▁examples	-10.9631
Work	-10.9633
ustin	-10.9633
▁dataSource	-10.9633
▁preparation	-10.9633
▁cycle	-10.9637
▁predicate	-10.964
Paris	-10.9641
▁impl	-10.9645
istan	-10.9645
▁planned	-10.9646
▁desired	-10.9647
▁paying	-10.9647
▁getParameter	-10.9648
sure	-10.9648
▁availability	-10.9649
▁employment	-10.965
nail	-10.965
grat	-10.9651
▁Human	-10.9654
url	-10.9655
▁ordered	-10.9658
Insurance	-10.9658
▁Customer	-10.9663
▁getConnection	-10.9665
▁eventually	-10.9665
Arg	-10.9668
amic	-10.967
Left	-10.9673
▁fourth	-10.9674
hind	-10.9676
▁waitFor	-10.9677
▁printed	-10.968
cr	-10.9681
ussian	-10.9684
70	-10.9684
ali	-10.9686
GroupId	-10.9686
▁Card	-10.9687
quality	-10.9688
▁Tor	-10.969
▁reli	-10.9692
▁Studio	-10.9692
38	-10.9694
Certificate	-10.9696
▁household	-10.9698
▁Brow	-10.9702
po	-10.9703
-7	-10.9704
COLUMN	-10.9705
▁remind	-10.9706
Flag	-10.9714
▁invite	-10.9716
▁li	-10.9717
▁800	-10.9718
▁gri	-10.9719
pic	-10.9719
▁joining	-10.9721
Children	-10.9721
ibly	-10.9725
▁forum	-10.9728
position	-10.9731
▁assess	-10.9732
petit	-10.9732
▁capabilities	-10.9733
Email	-10.9734
▁pure	-10.9736
Happy	-10.9743
which	-10.9743
▁getNode	-10.9744
▁phi	-10.9745
Operations	-10.9746
▁agenc	-10.9746
▁vm	-10.9746
wa	-10.9747
olog	-10.975
▁unlock	-10.9753
▁assets	-10.9756
▁passenger	-10.9757
▁Additional	-10.9761
▁happ	-10.9763
▁west	-10.9764
▁UTF	-10.9766
▁tuple	-10.9766
▁Fall	-10.9769
▁qui	-10.9771
inary	-10.9773
▁disc	-10.9773
wan	-10.9773
▁Small	-10.9778
Variables	-10.9778
nCan	-10.9778
400	-10.978
▁Jack	-10.9781
CODE	-10.9781
hr	-10.9782
▁adapt	-10.9789
dam	-10.9793
▁Cas	-10.9795
unting	-10.9796
▁perspective	-10.9798
Signature	-10.9799
operation	-10.9799
▁emp	-10.9799
▁defined	-10.9799
vin	-10.9805
Ch	-10.9806
▁Party	-10.9806
▁tagged	-10.981
▁Atla	-10.9812
orea	-10.9815
▁executor	-10.9816
▁km	-10.9817
▁continuous	-10.9819
▁Lock	-10.982
tts	-10.982
ngress	-10.9821
▁collected	-10.9822
▁Only	-10.9823
▁Watch	-10.9825
▁Hand	-10.9826
▁FREE	-10.9826
▁Single	-10.9828
wer	-10.9829
tag	-10.983
▁binding	-10.9832
888	-10.9833
space	-10.9834
36	-10.9835
▁answers	-10.984
▁mal	-10.984
tire	-10.9842
▁imm	-10.9853
half	-10.9857
▁coa	-10.9857
▁serviceName	-10.9857
▁coun	-10.986
▁guard	-10.986
▁getState	-10.9862
▁RE	-10.9866
ERROR	-10.9867
▁toList	-10.9867
example	-10.9873
▁linked	-10.9874
▁dump	-10.9875
▁getVersion	-10.9878
Db	-10.9879
sion	-10.9882
home	-10.9883
De	-10.9884
urse	-10.9887
▁smile	-10.9887
content	-10.9888
▁litera	-10.9889
▁dto	-10.9892
▁Sing	-10.9893
52	-10.9893
otic	-10.9896
▁"%	-10.9897
▁getEntity	-10.9897
import	-10.99
▁glu	-10.9903
Be	-10.9905
Like	-10.991
▁recorded	-10.9911
title	-10.9911
PR	-10.9911
roduction	-10.9915
▁desc	-10.9917
▁weak	-10.9921
Angeles	-10.9929
ius	-10.9934
eph	-10.9936
▁Repair	-10.9939
▁desk	-10.994
▁Start	-10.9943
▁recognized	-10.9945
Collector	-10.9945
▁mixed	-10.9946
Come	-10.9947
Duration	-10.9948
48	-10.9948
gues	-10.9953
▁bigger	-10.9958
▁monitoring	-10.9959
▁Put	-10.9961
▁Secret	-10.9964
▁historic	-10.9965
▁getField	-10.9976
▁cfg	-10.9978
Producer	-10.9979
▁Statement	-10.998
▁possibly	-10.998
Motor	-10.9981
pool	-10.9982
▁mechani	-10.9982
▁getResult	-10.9984
check	-10.9986
Master	-10.9991
▁twice	-10.9991
▁fif	-10.9997
▁Gal	-10.9998
related	-10.9998
mble	-11
etal	-11
▁visible	-11.0003
ctors	-11.0004
Float	-11.0012
▁receiving	-11.0013
▁degrees	-11.0013
▁yesterday	-11.0014
Locator	-11.0015
NotFound	-11.0029
nR	-11.0033
▁"2	-11.0037
▁thin	-11.0038
▁Digital	-11.004
force	-11.004
Success	-11.004
▁getDescription	-11.0041
eats	-11.0042
message	-11.0044
igan	-11.0044
▁Commerce	-11.0046
▁Repository	-11.0047
▁categories	-11.0047
▁Space	-11.0049
OF	-11.005
▁worker	-11.0051
▁spark	-11.0053
ography	-11.0054
nClick	-11.0057
So	-11.006
ymptoms	-11.0061
Init	-11.0061
person	-11.0063
▁recognize	-11.0064
Cursor	-11.0065
efense	-11.0068
▁iter	-11.0071
DATA	-11.0071
NOT	-11.0072
^	-11.008
UV	-11.0082
▁confirm	-11.0082
PROPERTY	-11.0092
BS	-11.0094
ById	-11.0096
Bo	-11.0097
▁attached	-11.0098
▁satisfaction	-11.0098
▁committee	-11.0098
▁reply	-11.0098
su	-11.0103
▁oprot	-11.0109
ature	-11.0117
▁PA	-11.0119
ears	-11.0122
▁evaluation	-11.0123
▁invocation	-11.0124
▁Ye	-11.0127
ilet	-11.0127
▁jack	-11.0135
▁lens	-11.0136
atory	-11.0137
using	-11.0137
realize	-11.0139
rest	-11.0147
AsString	-11.0148
IC	-11.0149
▁strip	-11.015
color	-11.015
gla	-11.0152
▁adapter	-11.0154
got	-11.0158
▁Box	-11.0158
isco	-11.0159
ith	-11.0161
ival	-11.0166
star	-11.0171
▁Children	-11.0172
Tuple	-11.0174
Auto	-11.0174
▁architecture	-11.0175
Welcome	-11.0175
beta	-11.0181
▁pic	-11.0186
rman	-11.0187
Deployment	-11.0187
zzle	-11.0188
▁SC	-11.019
uring	-11.019
minated	-11.019
grad	-11.0193
pped	-11.0195
▁vol	-11.0198
▁dates	-11.0201
▁flash	-11.0207
▁movies	-11.0207
ml	-11.0209
▁tie	-11.0213
▁Area	-11.0215
rime	-11.0215
Delay	-11.0215
▁liqui	-11.0219
▁tested	-11.022
vention	-11.022
▁payments	-11.0221
under	-11.0221
FC	-11.0222
▁Jersey	-11.0226
info	-11.0229
▁flex	-11.0235
_8	-11.0236
▁End	-11.0237
▁getInt	-11.0239
▁Cent	-11.0244
order	-11.0245
Instead	-11.0249
nD	-11.0249
▁readers	-11.025
claimed	-11.0256
bridge	-11.0257
nique	-11.0257
ease	-11.0259
Timer	-11.0261
real	-11.0262
nBy	-11.0262
▁finest	-11.0268
▁proposed	-11.027
Insert	-11.0272
nOnce	-11.0273
ov	-11.0274
▁specified	-11.0276
rum	-11.0281
Activity	-11.0282
onvenience	-11.0282
Sample	-11.0282
▁PDF	-11.0286
▁Deprecated	-11.0286
Packet	-11.0289
Created	-11.029
Ð	-11.029
nAre	-11.029
▁Content	-11.0297
▁tal	-11.0299
VD	-11.03
▁Generic	-11.0301
▁compli	-11.0301
▁portfolio	-11.0303
HS	-11.0303
▁validator	-11.0304
▁Smart	-11.0308
ebra	-11.031
▁dynamicQuery	-11.0313
▁publish	-11.0313
ci	-11.0316
kle	-11.032
onate	-11.0328
Ex	-11.0332
▁getSimpleName	-11.0333
▁tre	-11.0336
roid	-11.0338
):	-11.0342
▁Player	-11.0344
fall	-11.0347
Java	-11.0352
Professional	-11.0353
BY	-11.0354
▁issued	-11.0356
▁completion	-11.0356
nta	-11.036
dden	-11.0368
▁interaction	-11.0371
Display	-11.0373
lu	-11.0379
Menu	-11.038
▁converter	-11.0389
▁comparison	-11.0391
▁Wild	-11.0393
65	-11.0393
▁Last	-11.0398
▁pricing	-11.04
Co	-11.0407
hones	-11.0417
▁seed	-11.0424
ypical	-11.0426
found	-11.0426
Lo	-11.0431
▁closer	-11.0437
qua	-11.0442
▁chapter	-11.0448
▁dest	-11.0452
oke	-11.0452
rrangement	-11.0456
Monitor	-11.0456
▁marshall	-11.0456
2004	-11.0458
Edit	-11.046
nit	-11.0463
rate	-11.0464
▁resp	-11.0465
▁cursor	-11.0465
▁soap	-11.0468
Person	-11.0477
lah	-11.0479
▁Where	-11.048
▁getConfig	-11.0482
root	-11.0482
aries	-11.0484
ompletableFuture	-11.0488
▁Cluster	-11.049
▁propertyName	-11.0492
▁framework	-11.0495
▁Cost	-11.0499
STRING	-11.0499
▁decor	-11.05
rts	-11.0502
External	-11.0503
▁visited	-11.0504
lock	-11.0504
06	-11.0505
▁36	-11.0508
▁Ci	-11.051
▁alt	-11.0511
arian	-11.0511
▁Note	-11.0513
Cannot	-11.0516
othing	-11.052
Station	-11.0522
▁yes	-11.0527
▁carbon	-11.053
enth	-11.053
▁printer	-11.0532
hesi	-11.0533
od	-11.0533
Rate	-11.0537
▁versions	-11.0541
▁Prof	-11.0547
▁modified	-11.0549
▁except	-11.0551
▁identified	-11.0552
ridge	-11.0556
Available	-11.0557
run	-11.0558
buse	-11.056
ura	-11.056
▁sensor	-11.0561
▁agents	-11.0561
look	-11.0564
▁isNull	-11.0568
sia	-11.057
ectly	-11.0571
Chunk	-11.0573
ounds	-11.0574
orn	-11.0575
stic	-11.0581
▁getLast	-11.0581
▁lease	-11.0587
▁medication	-11.0589
las	-11.0593
cific	-11.0594
▁requested	-11.0596
Partner	-11.0597
▁plain	-11.0604
cat	-11.0606
rates	-11.0608
▁kn	-11.0612
▁Ala	-11.0613
iber	-11.0615
▁missed	-11.0617
▁managing	-11.0617
dinary	-11.0618
▁unf	-11.0619
▁invited	-11.0621
bai	-11.0621
Full	-11.0624
▁Sale	-11.0624
iti	-11.0624
▁crash	-11.0627
69	-11.0627
lva	-11.0629
Transformer	-11.063
▁define	-11.0633
Aggregation	-11.0647
sale	-11.065
▁broadcast	-11.0651
this	-11.0654
Env	-11.0657
▁Style	-11.0658
▁Excel	-11.0659
friendly	-11.0659
Agent	-11.0659
clear	-11.0662
yo	-11.0671
▁Mobile	-11.0672
bow	-11.0676
vita	-11.068
nLo	-11.0682
▁HTTP	-11.0687
▁Fund	-11.0687
▁creat	-11.0689
▁slee	-11.0689
He	-11.0689
GB	-11.0694
▁organi	-11.0695
▁zero	-11.0695
▁gre	-11.0696
28	-11.0698
▁Miss	-11.0698
▁Address	-11.0699
ByName	-11.0708
Use	-11.0712
rian	-11.0714
lined	-11.0715
▁certification	-11.0716
▁Sho	-11.0716
▁Cru	-11.0719
niversa	-11.0722
nar	-11.0726
Structure	-11.0729
▁actor	-11.0729
thing	-11.073
▁Gree	-11.074
▁DataType	-11.0743
▁causes	-11.0746
▁setText	-11.0748
uma	-11.0748
eep	-11.0749
▁ensur	-11.075
ense	-11.0755
▁diagram	-11.0756
▁formal	-11.0758
EM	-11.0759
▁bug	-11.0759
▁ge	-11.0759
▁Label	-11.0766
▁shutdown	-11.0774
Night	-11.0776
▁deployment	-11.0779
▁gap	-11.078
▁codes	-11.0785
▁reporting	-11.0787
▁getModel	-11.0788
66	-11.0789
asting	-11.079
▁patch	-11.0792
▁sti	-11.0795
▁MP	-11.0796
Sound	-11.0798
ently	-11.0798
patio	-11.08
kh	-11.08
kin	-11.0806
CLASS	-11.0812
Stock	-11.0815
fi	-11.0816
▁adv	-11.0819
ussia	-11.082
▁storm	-11.0822
42	-11.0823
onic	-11.0825
sty	-11.0828
Arguments	-11.0829
.00	-11.083
roll	-11.0831
▁indicate	-11.0835
Exchange	-11.084
▁shell	-11.084
Kind	-11.0841
▁immediate	-11.0843
▁angle	-11.0844
▁Ann	-11.085
Executive	-11.0852
ges	-11.0854
system	-11.0855
▁Pattern	-11.0858
▁implement	-11.0858
▁scientific	-11.086
▁organis	-11.086
▁Travel	-11.0862
rpris	-11.0862
atic	-11.0863
▁draft	-11.0866
phis	-11.0868
▁getTarget	-11.087
tract	-11.087
olic	-11.0875
bour	-11.0876
fsp	-11.0877
▁Role	-11.0884
are	-11.0885
▁agg	-11.0888
▁Transport	-11.0891
role	-11.0896
▁newArrayList	-11.0896
▁Template	-11.0897
ckle	-11.0897
▁packages	-11.0897
▁sizes	-11.0898
▁preferred	-11.0911
bc	-11.0912
ora	-11.0915
▁Next	-11.0919
tel	-11.0921
▁ON	-11.0925
▁bac	-11.0926
▁generator	-11.0928
▁resultSet	-11.0929
Make	-11.0932
apache	-11.0933
▁ran	-11.0936
▁del	-11.094
▁shares	-11.0943
gie	-11.0945
bell	-11.0946
ters	-11.0946
ighting	-11.0947
▁graphics	-11.0948
▁getLong	-11.0949
▁joy	-11.0949
▁confident	-11.0952
▁retire	-11.0953
▁severe	-11.0954
Short	-11.0954
▁har	-11.0954
▁durable	-11.0954
▁reverse	-11.0962
▁association	-11.0963
illed	-11.0964
Could	-11.0965
ean	-11.0967
▁exceptional	-11.0967
▁inspection	-11.0969
▁MS	-11.0971
eb	-11.0972
capable	-11.0972
07	-11.0976
▁alias	-11.098
▁detect	-11.0981
fire	-11.0982
matters	-11.0988
jo	-11.0993
33	-11.0997
▁Country	-11.0997
▁Lan	-11.0998
08	-11.0999
proof	-11.1001
▁getIndex	-11.1002
▁dao	-11.1009
▁blank	-11.1009
▁Fre	-11.1011
▁integration	-11.1013
▁motion	-11.1017
▁Run	-11.1021
Square	-11.1021
▁publication	-11.1021
▁stat	-11.1022
udge	-11.1022
pi	-11.1022
ushFollow	-11.1023
Principal	-11.1027
earn	-11.1027
▁Drive	-11.1029
sive	-11.1032
ister	-11.1033
break	-11.1033
dal	-11.1035
ionship	-11.1036
azy	-11.1042
▁Tra	-11.1042
▁Window	-11.1043
▁union	-11.1047
Film	-11.1053
▁Consumer	-11.1055
▁NotNull	-11.1056
▁async	-11.1057
ators	-11.1057
$2	-11.1058
Optional	-11.1059
▁Criteria	-11.1062
▁setAttribute	-11.1064
▁Brand	-11.1065
CD	-11.107
isation	-11.1071
rice	-11.1071
session	-11.1078
75	-11.1078
▁picked	-11.108
Stat	-11.1081
▁minimal	-11.1084
▁prof	-11.1086
Want	-11.1086
▁convention	-11.1087
Ro	-11.1089
▁loop	-11.1092
doc	-11.1094
▁rev	-11.1099
▁proven	-11.11
▁Insta	-11.1102
▁CO	-11.1103
▁socket	-11.1105
▁USER	-11.1106
▁getTable	-11.1108
▁experiment	-11.111
TEST	-11.1111
▁invalid	-11.1113
anda	-11.1118
USER	-11.1121
▁getFirst	-11.1124
▁Han	-11.1126
PM	-11.1128
▁Mer	-11.113
plain	-11.1131
▁chunk	-11.1133
▁150	-11.1133
05	-11.1136
azi	-11.1137
▁clinic	-11.1145
exposure	-11.1147
inding	-11.115
▁Inter	-11.1152
has	-11.1156
cean	-11.1157
▁Host	-11.1158
cp	-11.116
3)	-11.1161
EST	-11.1165
▁male	-11.1165
▁plot	-11.1166
LY	-11.1166
▁translate	-11.1167
DO	-11.1169
▁functional	-11.1169
▁Foo	-11.117
▁handling	-11.1172
▁BigInteger	-11.1172
PK	-11.1173
▁mask	-11.1174
lite	-11.1176
▁getComponent	-11.1179
orange	-11.1181
aka	-11.1182
Sink	-11.1184
▁vs	-11.1186
nutrition	-11.1187
▁https	-11.1191
Total	-11.1192
▁Cla	-11.1193
PC	-11.1194
▁JsonProperty	-11.1197
▁nor	-11.1197
▁cookie	-11.1198
▁Ti	-11.1198
oods	-11.1201
lamp	-11.1201
Sky	-11.1201
29	-11.1204
ctoria	-11.1204
bal	-11.1204
XmlException	-11.1205
▁bulk	-11.1206
cks	-11.1207
Mail	-11.1209
▁reserve	-11.1216
Return	-11.1217
ively	-11.122
erson	-11.122
Sqrt	-11.1226
hine	-11.1227
▁Em	-11.1229
Permissions	-11.1229
▁Building	-11.1231
nne	-11.1234
ui	-11.1236
Has	-11.1237
nGet	-11.124
▁Assertions	-11.1242
▁Vector	-11.1242
▁supplement	-11.1248
admin	-11.1249
▁determined	-11.125
▁notify	-11.125
inking	-11.1252
▁Bal	-11.1257
▁bas	-11.1257
▁leak	-11.126
aper	-11.1261
Specification	-11.1261
tive	-11.1262
123	-11.1263
▁NULL	-11.1263
▁OR	-11.1266
▁reaction	-11.1269
45	-11.127
▁decrease	-11.1278
Workflow	-11.1282
▁unable	-11.1284
Unf	-11.1285
Fragment	-11.1287
▁Swe	-11.1287
nAny	-11.1288
tech	-11.1295
▁contents	-11.1297
ute	-11.1298
▁lay	-11.1305
▁inc	-11.1307
artin	-11.1312
otato	-11.1313
onto	-11.1314
▁Ku	-11.1317
Fi	-11.132
ollaboration	-11.132
▁75	-11.1321
▁Validation	-11.1328
timate	-11.1328
▁implemented	-11.133
▁cookies	-11.1333
Trace	-11.1333
▁Edge	-11.1334
▁TABLE	-11.1339
▁Training	-11.1341
▁geo	-11.1348
▁holder	-11.1348
▁validation	-11.1349
sher	-11.1352
function	-11.1357
Shape	-11.1358
▁summary	-11.1366
dry	-11.137
MP	-11.1372
lym	-11.1375
▁Fin	-11.1375
39	-11.1378
▁Sur	-11.1379
▁Help	-11.1379
▁Platform	-11.138
▁stopped	-11.1387
die	-11.1388
screen	-11.1392
Actions	-11.1393
▁whi	-11.1393
▁discovery	-11.1396
▁pla	-11.1398
▁Princ	-11.14
lumn	-11.1408
lant	-11.1411
cou	-11.1411
Methods	-11.1415
hello	-11.1417
▁aggregate	-11.142
orb	-11.1426
▁Little	-11.1426
▁Learn	-11.1427
▁boot	-11.1428
▁Gallery	-11.1429
post	-11.1429
▁History	-11.143
COUNT	-11.1432
RO	-11.1437
▁isValid	-11.144
▁Shi	-11.144
▁Container	-11.1441
input	-11.1442
tained	-11.1442
rated	-11.1443
▁killed	-11.1444
stanti	-11.1446
▁Maybe	-11.1447
▁favor	-11.145
onom	-11.1451
▁relation	-11.1454
▁Feature	-11.1454
servation	-11.146
Len	-11.1462
▁Tim	-11.1466
▁approval	-11.1468
))	-11.1468
▁Ban	-11.1471
▁seller	-11.1472
Branch	-11.1474
zy	-11.1474
Secret	-11.1475
▁Lib	-11.1476
▁Kar	-11.1476
SEO	-11.1477
▁confirmed	-11.1478
harp	-11.1482
lame	-11.1484
▁tournament	-11.1487
urie	-11.1487
▁rating	-11.1491
nLook	-11.1492
▁contentType	-11.1495
▁doSetProperty	-11.1498
▁fra	-11.1499
▁finderPath	-11.1504
▁versa	-11.1505
▁Polic	-11.1505
Capacity	-11.1505
oats	-11.1508
▁filename	-11.1513
▁eligible	-11.1513
▁Using	-11.1514
sistant	-11.152
▁replaced	-11.152
▁diff	-11.152
Tx	-11.1523
Scan	-11.1525
▁hum	-11.1525
▁Times	-11.1526
oul	-11.1527
▁dy	-11.1531
▁Sc	-11.1533
Four	-11.1534
▁DC	-11.1537
▁Nic	-11.1537
MC	-11.1539
boxes	-11.1545
▁division	-11.1548
ula	-11.1548
sper	-11.155
rned	-11.1551
▁thrown	-11.1552
aint	-11.1552
▁channels	-11.1554
Millis	-11.1558
▁addresses	-11.1558
▁Sample	-11.1559
nDr	-11.1563
▁Colum	-11.1564
mont	-11.1565
▁tiny	-11.1566
▁explo	-11.1567
nack	-11.1567
CP	-11.1568
▁ne	-11.157
▁clip	-11.157
▁labels	-11.1571
https	-11.1573
▁disk	-11.1573
37	-11.1574
Matrix	-11.1575
▁Ok	-11.1575
▁hosted	-11.158
▁Ari	-11.158
▁Down	-11.1581
▁interactive	-11.1582
Export	-11.1583
Ctx	-11.1585
▁Delete	-11.1589
-12	-11.1591
DE	-11.1591
Catalog	-11.1594
▁bound	-11.1597
nDon	-11.1597
ping	-11.1599
Multiple	-11.16
')	-11.1602
▁Member	-11.1604
▁Metadata	-11.1605
nYe	-11.1606
▁ti	-11.1606
▁grab	-11.1614
▁strict	-11.1614
▁Hor	-11.1618
▁slice	-11.162
Remember	-11.162
school	-11.1621
market	-11.1621
aly	-11.1623
Than	-11.1623
FS	-11.1624
▁Location	-11.1625
▁charAt	-11.1627
▁Byte	-11.1629
▁acquire	-11.1629
nee	-11.1631
▁tissue	-11.1632
Pointer	-11.1632
mate	-11.1633
YOU	-11.1633
▁variables	-11.1637
portion	-11.1637
▁stmt	-11.1637
▁hide	-11.1639
▁Ya	-11.1646
etry	-11.1646
▁wir	-11.1646
gu	-11.1646
tages	-11.1648
Oak	-11.1649
▁compile	-11.1651
▁getProperties	-11.1652
▁depend	-11.1653
▁estimated	-11.1653
Comparator	-11.1654
uzz	-11.1655
▁gener	-11.1658
fare	-11.1662
Renderer	-11.1664
iving	-11.1666
TABLE	-11.1667
▁displayed	-11.1668
pre	-11.1669
plaint	-11.167
▁WHERE	-11.1675
▁Policy	-11.1675
_3	-11.1679
▁remark	-11.168
▁ser	-11.1681
▁sala	-11.1684
▁submitted	-11.1685
lasses	-11.1685
▁37	-11.1686
Sun	-11.1688
▁loo	-11.1689
moke	-11.169
2018	-11.169
▁3,	-11.1694
▁timer	-11.1697
cl	-11.1697
▁Medic	-11.1698
-10	-11.1698
▁dataType	-11.1714
EL	-11.1717
Donald	-11.1719
▁suff	-11.1721
44	-11.1724
▁yy	-11.1726
elines	-11.1729
Safety	-11.1729
Threshold	-11.173
llow	-11.1731
stances	-11.1736
ume	-11.1737
ario	-11.1743
See	-11.1746
Year	-11.1746
▁serviceContext	-11.1748
uated	-11.1748
▁encoding	-11.1749
AM	-11.1749
Stage	-11.1755
▁slide	-11.176
▁unexpected	-11.1762
Blob	-11.1764
hore	-11.1767
-1	-11.1772
query	-11.1774
▁UI	-11.1779
cular	-11.1779
aving	-11.1779
▁Ser	-11.1779
▁ip	-11.1789
▁Op	-11.1792
▁parseInt	-11.1792
▁inventory	-11.1794
▁popula	-11.1794
ield	-11.1795
fused	-11.1804
Top	-11.1804
▁Instant	-11.1805
MAP	-11.1807
▁composite	-11.1809
▁Remote	-11.1811
UTF	-11.1811
abul	-11.1812
▁provision	-11.1813
kins	-11.1814
oster	-11.1816
▁pc	-11.182
▁entered	-11.182
nNot	-11.182
Core	-11.1822
Save	-11.1823
Checker	-11.1823
▁hook	-11.183
Received	-11.1831
scale	-11.1834
....	-11.1835
target	-11.1836
▁retain	-11.1838
▁Dal	-11.1839
Download	-11.1843
▁univers	-11.1848
precise	-11.1855
giv	-11.1855
Transfer	-11.1855
▁Link	-11.1861
▁Vol	-11.1862
▁Financial	-11.1863
ution	-11.1865
Archive	-11.1868
▁Core	-11.1873
▁circle	-11.1874
lp	-11.1875
har	-11.1876
ansa	-11.1878
▁Inve	-11.188
▁samples	-11.1883
▁whil	-11.1886
▁Quality	-11.1887
mes	-11.1887
▁alarm	-11.1897
▁Alerts	-11.1899
▁mile	-11.1905
▁endsWith	-11.1905
▁Version	-11.1905
▁SECONDS	-11.191
ady	-11.1915
▁fault	-11.1915
sFor	-11.1924
▁restor	-11.1926
▁conflict	-11.1927
▁compliance	-11.1931
▁pr	-11.1932
ctory	-11.1934
▁doReturn	-11.1936
▁wrapped	-11.1938
mit	-11.1939
▁divide	-11.1941
Added	-11.1944
Facet	-11.1949
▁legend	-11.1951
▁setType	-11.1953
▁mol	-11.1953
Seconds	-11.1955
Schedule	-11.1957
▁blocks	-11.1958
liminate	-11.1958
▁~	-11.1959
Other	-11.1963
▁Jackson	-11.1963
▁JR	-11.1964
▁photographer	-11.1966
▁utility	-11.1968
ewer	-11.1969
token	-11.1972
▁getColumn	-11.1973
lings	-11.1974
▁getMetadata	-11.1974
mot	-11.1977
▁council	-11.1978
▁Device	-11.1978
holders	-11.1984
▁getSession	-11.1985
▁Pool	-11.1988
▁Cover	-11.1993
▁<<	-11.1993
Objects	-11.1996
▁spect	-11.1996
takes	-11.1996
mers	-11.1998
▁64	-11.2001
▁percentage	-11.2001
▁DB	-11.2003
Creation	-11.2004
world	-11.2007
lux	-11.2007
▁connections	-11.201
nCh	-11.2022
▁getAbsolutePath	-11.2024
▁repeat	-11.2025
lov	-11.2026
nish	-11.2027
urge	-11.2031
Card	-11.2031
▁shi	-11.2032
oxi	-11.2032
ram	-11.2032
DataType	-11.2035
46	-11.2036
▁labor	-11.2038
▁Bridge	-11.2042
Artifact	-11.2047
0.0	-11.205
friend	-11.2055
▁robot	-11.2058
Example	-11.206
xce	-11.2063
▁Dia	-11.207
meter	-11.2071
Me	-11.2074
win	-11.2075
tis	-11.2077
Below	-11.2079
▁unknown	-11.2079
▁odd	-11.2079
▁digest	-11.208
▁ModelNode	-11.2081
Amount	-11.2085
▁Files	-11.2087
ken	-11.2087
ranc	-11.209
Gateway	-11.2091
SD	-11.2092
▁Wo	-11.2097
Sender	-11.2098
▁suspect	-11.2099
▁requirement	-11.2101
▁Fun	-11.2102
Fail	-11.2104
peech	-11.2106
Yes	-11.2107
Let	-11.211
ava	-11.211
vis	-11.2113
Are	-11.2114
Attr	-11.2114
DS	-11.2119
others	-11.212
DC	-11.2126
reparedStatement	-11.2126
Organization	-11.2129
▁constraint	-11.213
2003	-11.2131
▁parseFrom	-11.2133
▁listening	-11.2134
▁proof	-11.2138
▁lab	-11.2139
▁deserialize	-11.2139
Did	-11.2143
▁argu	-11.2145
▁authority	-11.2145
END	-11.2148
▁construct	-11.2149
▁NoSuch	-11.215
▁getCache	-11.2152
sight	-11.2156
1_	-11.2156
Accessor	-11.2157
▁fulfill	-11.2157
high	-11.2159
▁cli	-11.216
▁columnName	-11.2161
event	-11.2162
▁setParameter	-11.2165
Still	-11.2167
▁DE	-11.2167
▁repo	-11.2172
▁FOR	-11.2176
tall	-11.2178
▁createQuery	-11.218
▁fla	-11.2183
▁consume	-11.2186
Bob	-11.2187
Division	-11.2189
step	-11.2192
aha	-11.2193
itan	-11.2197
hour	-11.22
▁authorities	-11.2202
58	-11.2204
treat	-11.2204
▁Consul	-11.2206
Allowed	-11.2206
eff	-11.2207
Put	-11.2207
▁pad	-11.2208
dise	-11.2209
▁receiver	-11.2209
Floor	-11.2209
▁batter	-11.221
team	-11.2212
▁goods	-11.2212
High	-11.2214
▁QName	-11.2217
▁Qui	-11.2219
▁networks	-11.222
▁sender	-11.2221
▁ResultSet	-11.2222
zil	-11.2223
Invocation	-11.2227
TS	-11.2228
Algorithm	-11.2232
une	-11.2232
▁interval	-11.2233
▁advisor	-11.2239
Selected	-11.2241
▁artifact	-11.2242
nLast	-11.2244
alo	-11.2245
▁era	-11.2248
ealthcare	-11.225
▁console	-11.2254
cognition	-11.2255
vious	-11.226
63	-11.226
▁getHeader	-11.226
Transport	-11.2261
rab	-11.2262
losing	-11.2263
Player	-11.2264
▁assertThrows	-11.2266
cles	-11.2272
Marker	-11.228
core	-11.2284
Effect	-11.2284
ieved	-11.2284
Primitive	-11.2285
▁resolved	-11.2285
abc	-11.2287
ToString	-11.2288
Diff	-11.2291
▁33	-11.2292
RC	-11.2292
▁reduction	-11.2299
▁gene	-11.2306
racing	-11.231
enuine	-11.2318
aked	-11.2321
▁reserved	-11.2322
nois	-11.2322
▁Swi	-11.2323
▁Certificate	-11.2324
mmy	-11.2325
aze	-11.2325
▁getPort	-11.2326
dia	-11.2327
▁scratch	-11.2327
▁warning	-11.2333
▁isNotNull	-11.2338
rug	-11.2338
▁maker	-11.2339
Found	-11.2341
▁loaded	-11.2346
▁Visit	-11.2348
TypeName	-11.2349
▁Kit	-11.2349
Evaluator	-11.235
▁critic	-11.2352
▁deser	-11.2354
ender	-11.2355
tants	-11.2357
cA	-11.2357
dent	-11.2358
▁agr	-11.236
Retry	-11.2361
tin	-11.2362
merging	-11.2364
▁DI	-11.2365
Reason	-11.2372
▁":"	-11.2375
▁peak	-11.2377
▁dial	-11.2379
▁scenario	-11.2382
pack	-11.2383
▁stri	-11.2389
trop	-11.2389
▁generic	-11.2389
▁numberOf	-11.2391
▁caus	-11.2394
▁isTrue	-11.2394
▁forecast	-11.2397
▁Sou	-11.2398
Send	-11.2398
▁Micro	-11.2399
▁checking	-11.2399
HA	-11.24
je	-11.2404
▁Federa	-11.2408
Accept	-11.2414
Challenge	-11.2416
smith	-11.2416
▁automatic	-11.2418
▁manufacture	-11.2419
eling	-11.2419
Extractor	-11.2425
rot	-11.2427
brace	-11.243
▁segments	-11.2431
uv	-11.2437
▁medi	-11.2439
design	-11.244
CO	-11.2442
▁Force	-11.2443
CONFIG	-11.2443
▁graphic	-11.2445
▁suggestions	-11.2451
dir	-11.2452
Contains	-11.246
sized	-11.2461
▁newValue	-11.2462
SC	-11.2464
▁Communication	-11.2464
▁Software	-11.2468
via	-11.2469
▁Select	-11.2472
▁rob	-11.2473
▁apple	-11.2475
▁Lau	-11.2475
Net	-11.2476
Slot	-11.2478
▁NAME	-11.2479
▁edges	-11.248
▁leaf	-11.248
▁decorat	-11.2481
TestUtils	-11.2483
▁Elect	-11.2488
Phase	-11.2489
▁Composite	-11.249
ppers	-11.2493
AND	-11.2494
▁ambi	-11.2495
kes	-11.2499
StackSize	-11.2504
▁authentic	-11.2506
Free	-11.2508
vic	-11.251
▁rig	-11.2514
Assert	-11.2514
▁Bio	-11.2516
project	-11.2516
▁stated	-11.2516
bu	-11.2518
▁Private	-11.2518
▁getLocation	-11.2534
Rules	-11.2535
▁getGroup	-11.2536
▁Mail	-11.254
obe	-11.2541
▁filters	-11.2541
viously	-11.2543
▁compact	-11.2543
▁formula	-11.2545
src	-11.255
▁nodeId	-11.2551
▁modify	-11.2553
nNew	-11.2553
pp	-11.2561
pparent	-11.2563
▁Case	-11.2566
Geometry	-11.2568
▁obtained	-11.257
▁Max	-11.2571
▁AST	-11.2572
▁"0"	-11.2573
▁Cell	-11.2576
Unknown	-11.2578
cked	-11.2578
▁mechanism	-11.258
ums	-11.2583
▁encoded	-11.2585
▁packaging	-11.2586
▁Low	-11.2587
tly	-11.2587
Talk	-11.2587
▁Metric	-11.2588
▁tracking	-11.259
▁reduc	-11.259
status	-11.259
CS	-11.2591
Sort	-11.2591
▁belong	-11.2591
▁Cel	-11.2592
▁Runnable	-11.2592
▁recommendations	-11.2594
▁retrieve	-11.2599
Connect	-11.2599
aho	-11.26
▁Turn	-11.26
▁Hou	-11.2601
▁Predicate	-11.2603
▁delta	-11.2603
password	-11.2606
▁subscribe	-11.2609
nIs	-11.261
Pro	-11.2612
▁mouse	-11.2612
▁Natural	-11.2613
▁supposed	-11.2617
▁letters	-11.2618
:00	-11.2618
▁Gre	-11.2621
location	-11.2622
▁outcome	-11.2624
etary	-11.2626
▁hits	-11.2627
▁getClient	-11.2631
▁OS	-11.2635
LIST	-11.2641
▁sending	-11.2641
▁Eas	-11.2642
Attachment	-11.2643
Roles	-11.2643
Constant	-11.2648
▁getS	-11.2649
Encoder	-11.2651
▁vector	-11.2651
Marshaller	-11.2653
▁expansion	-11.2657
SP	-11.2657
▁Off	-11.2659
erArgs	-11.2659
▁Enter	-11.2659
▁stamp	-11.2661
tr	-11.2661
$5	-11.2666
▁circuit	-11.2666
master	-11.2669
Moder	-11.2672
▁Las	-11.2674
▁mm	-11.2679
▁affiliat	-11.2679
Locale	-11.268
▁AC	-11.2681
▁Name	-11.2681
▁directed	-11.2681
▁getBean	-11.2681
Subject	-11.2685
▁JsonObject	-11.2685
▁prepar	-11.2687
▁arrival	-11.269
▁Invalid	-11.2691
ableDynamicQuery	-11.2693
essa	-11.2695
▁statusCode	-11.2696
till	-11.2697
▁dimension	-11.2698
09	-11.2699
▁tenant	-11.27
POS	-11.2701
GET	-11.2704
▁Simp	-11.2714
mitted	-11.2717
ancing	-11.2722
Rest	-11.2725
▁east	-11.2727
▁Pres	-11.2729
SB	-11.2732
▁Associate	-11.2736
▁Advanced	-11.274
rie	-11.2743
DP	-11.2744
Abstract	-11.2744
Tasks	-11.2747
▁stu	-11.2749
Basic	-11.2752
ieves	-11.2753
Engineering	-11.2754
izer	-11.2755
\",	-11.2756
AD	-11.2756
53	-11.2757
chievement	-11.276
pel	-11.276
action	-11.2761
3,	-11.2762
interest	-11.2764
▁tracks	-11.2764
quet	-11.2768
▁atom	-11.2769
▁forced	-11.2769
NS	-11.2769
SET	-11.2771
nest	-11.2776
vy	-11.2777
Symbol	-11.2781
ika	-11.2781
tains	-11.2782
urn	-11.2782
Entities	-11.2789
ourne	-11.2794
nite	-11.2796
49	-11.2799
▁Has	-11.2802
und	-11.2803
Interior	-11.2806
▁Hy	-11.2807
▁Personal	-11.2808
▁Database	-11.2809
av	-11.2811
▁NullPointer	-11.2812
Dependency	-11.2815
lg	-11.2817
▁authentication	-11.2818
sen	-11.2819
▁INDArray	-11.282
▁kno	-11.2821
▁attachment	-11.2821
▁desktop	-11.2821
aker	-11.2821
Finder	-11.2821
▁complement	-11.2822
▁MIN	-11.2824
OP	-11.2826
▁checked	-11.2827
Zone	-11.2828
▁getElement	-11.2828
ular	-11.283
acular	-11.2831
chiev	-11.2833
350	-11.2836
▁plug	-11.2836
UN	-11.284
rin	-11.2842
Common	-11.2845
4)	-11.2846
▁Batch	-11.2848
MB	-11.2849
▁"."	-11.285
▁Gri	-11.2854
Unable	-11.2857
nHi	-11.2861
▁increment	-11.2864
tu	-11.2869
▁fle	-11.287
undamental	-11.2872
▁Try	-11.2873
▁dim	-11.2873
▁secondary	-11.2874
una	-11.2877
Trade	-11.2878
▁getTest	-11.2882
▁decoration	-11.2883
verage	-11.2888
ndering	-11.289
nAnother	-11.2891
▁conversion	-11.2893
Door	-11.2893
Constructor	-11.2893
▁refund	-11.29
GA	-11.2903
lar	-11.2903
Cool	-11.2903
▁StringBuffer	-11.2904
34	-11.2907
▁plane	-11.2909
▁Er	-11.2911
ables	-11.2911
print	-11.2913
Down	-11.2915
cing	-11.292
ticipat	-11.2921
▁reportError	-11.2924
▁Sales	-11.2924
Users	-11.2925
PN	-11.2925
▁sorted	-11.2928
icious	-11.2928
▁proposal	-11.2933
▁instruction	-11.2935
sta	-11.2936
▁sensitive	-11.2937
▁65	-11.2939
▁orElse	-11.294
▁las	-11.2941
▁spell	-11.2943
▁assign	-11.2946
AA	-11.2949
51	-11.2949
DateTime	-11.295
▁Dynamic	-11.295
Experience	-11.295
stal	-11.2952
ALL	-11.2953
▁lifetime	-11.2954
sel	-11.2962
option	-11.2964
▁viewer	-11.2965
▁vertex	-11.2967
current	-11.2969
ML	-11.297
pr	-11.2971
▁primar	-11.2975
tar	-11.2976
▁Character	-11.2982
▁credentials	-11.2982
jar	-11.2983
▁narrow	-11.2985
▁getMethod	-11.2989
▁fru	-11.2989
▁getSchema	-11.2992
▁rein	-11.2992
▁predict	-11.2995
▁currency	-11.2998
Dynamic	-11.3
ored	-11.3002
▁trusted	-11.3003
▁ST	-11.3006
Assistant	-11.3008
▁sk	-11.3009
▁lowest	-11.301
iss	-11.3011
▁deploy	-11.3012
pression	-11.3013
RS	-11.3013
▁qualify	-11.3015
▁tokens	-11.3022
iscipline	-11.3022
Backup	-11.3023
▁Ac	-11.3024
▁cart	-11.3026
Never	-11.3027
Cut	-11.303
olo	-11.3032
▁carrier	-11.3033
▁Rule	-11.3034
▁suggested	-11.304
▁Workflow	-11.304
7.	-11.304
nFirst	-11.3041
should	-11.3042
Parts	-11.3047
▁loc	-11.3048
▁transformation	-11.305
▁NEW	-11.305
Ball	-11.3052
ati	-11.3053
Scheme	-11.3053
mates	-11.3055
▁debug	-11.3057
ob	-11.3057
open	-11.3063
▁lb	-11.3064
roy	-11.3064
tow	-11.3066
▁satisfy	-11.3067
AST	-11.307
Contact	-11.3079
ending	-11.308
Repo	-11.3081
▁Route	-11.3084
▁cp	-11.3084
▁anyString	-11.3087
▁Another	-11.3089
▁tear	-11.309
Design	-11.3091
▁compatible	-11.3093
exterior	-11.3095
▁appoint	-11.3095
neu	-11.3096
pid	-11.3097
▁Heart	-11.3098
pos	-11.31
▁encounter	-11.3107
▁packed	-11.3109
Head	-11.311
▁Dog	-11.311
▁INT	-11.311
stro	-11.3111
▁obs	-11.3114
▁ratio	-11.3118
Indicator	-11.3119
entry	-11.3119
▁selector	-11.312
▁stable	-11.3121
▁ERROR	-11.3121
Merge	-11.3121
reach	-11.3123
▁fr	-11.3123
▁binary	-11.3123
▁produc	-11.3124
▁55	-11.3125
piece	-11.3127
Exp	-11.313
▁gam	-11.3137
▁Cre	-11.3137
62	-11.3143
▁andReturn	-11.3144
acle	-11.3144
▁drill	-11.3149
▁latch	-11.3152
▁TRUE	-11.3152
▁lib	-11.3154
▁font	-11.3157
appoint	-11.3159
▁rang	-11.3159
commerce	-11.3159
▁iprot	-11.3161
MESSAGE	-11.3162
▁getQuery	-11.3163
▁flags	-11.3167
▁Bl	-11.3168
▁correctly	-11.317
▁Cro	-11.3172
▁crypto	-11.3172
ighter	-11.3175
▁assertSame	-11.3178
rape	-11.3179
▁managers	-11.3181
atellite	-11.3184
▁persist	-11.3184
▁submission	-11.3186
▁processed	-11.3186
Patient	-11.3186
▁ImmutableSet	-11.3189
Decoder	-11.3189
range	-11.319
rupt	-11.3191
Setup	-11.3195
graphic	-11.3196
▁converted	-11.3202
▁getResponse	-11.3203
▁hasSize	-11.3205
sha	-11.3206
▁Sim	-11.3207
▁getBody	-11.3208
bed	-11.3208
Paper	-11.321
iance	-11.3211
\",\"	-11.3212
Within	-11.3214
Unique	-11.3215
nEach	-11.3216
▁peer	-11.3217
OUR	-11.3218
▁getX	-11.3221
▁getIn	-11.3221
▁functionality	-11.3221
▁RandomTest	-11.3224
Html	-11.3224
that	-11.3225
▁Cook	-11.3226
Front	-11.3228
sters	-11.3229
▁Direct	-11.323
▁refr	-11.3234
Studies	-11.3235
MA	-11.3237
▁rh	-11.3242
▁benefici	-11.3244
Icon	-11.3253
Wrong	-11.3253
aga	-11.3255
Keep	-11.3262
▁^	-11.3263
cher	-11.3263
nNext	-11.3265
Capital	-11.3267
▁contr	-11.3267
▁Eg	-11.3268
▁gate	-11.327
▁templates	-11.3273
ency	-11.3273
▁Radio	-11.3274
▁marked	-11.3274
oor	-11.3274
▁Variable	-11.3277
▁ResponseBody	-11.3279
▁Tech	-11.3283
▁Limited	-11.3283
Socket	-11.3286
nutri	-11.3288
sBy	-11.3291
▁"--	-11.3292
▁bodies	-11.3293
resource	-11.3293
shots	-11.3295
▁serializer	-11.3297
MM	-11.3299
dle	-11.33
TestUtil	-11.3301
alth	-11.3301
GROUP	-11.3302
rio	-11.3307
bel	-11.3307
ntic	-11.3308
▁containing	-11.3308
▁inde	-11.3309
iel	-11.3316
ealing	-11.3316
foot	-11.3316
cache	-11.3316
▁Us	-11.3317
ls	-11.332
▁deadline	-11.332
scription	-11.3322
rill	-11.3325
▁closing	-11.333
▁Reference	-11.3331
Family	-11.3334
mentary	-11.3335
call	-11.3336
▁Error	-11.3339
▁getGroupId	-11.3341
▁Bre	-11.3341
Cost	-11.3343
▁Partition	-11.3344
ified	-11.3346
Glass	-11.3346
▁regions	-11.3347
▁getChildren	-11.3349
Best	-11.335
tend	-11.3353
ova	-11.3353
broad	-11.3359
▁rack	-11.336
Factor	-11.3362
lit	-11.3364
nets	-11.3366
uffering	-11.3367
wns	-11.3368
▁TX	-11.337
▁Meta	-11.3372
▁Fast	-11.3372
bound	-11.3375
ntrance	-11.3377
▁contained	-11.338
uge	-11.338
lipp	-11.3381
57	-11.3382
▁Classic	-11.3382
▁illegal	-11.3382
Back	-11.3384
web	-11.3385
61	-11.3387
▁Sk	-11.3388
loy	-11.3388
▁associate	-11.3393
ppy	-11.3393
▁34	-11.3397
▁inputStream	-11.3398
▁recycl	-11.3399
▁yield	-11.3402
▁ris	-11.3404
▁amen	-11.3406
phasi	-11.3417
▁runtime	-11.3418
rub	-11.3419
nCheck	-11.3424
41	-11.3426
▁consumption	-11.3427
Present	-11.3431
▁barrier	-11.3435
▁getRoot	-11.3438
600	-11.344
▁assigned	-11.3444
uction	-11.3446
ResponseAsync	-11.3447
Students	-11.3447
MD	-11.3448
▁Print	-11.3452
nDuring	-11.3452
▁floo	-11.3453
47	-11.3454
▁Ur	-11.3454
▁Non	-11.3459
▁fence	-11.3459
▁twin	-11.3459
▁Band	-11.346
▁Driver	-11.346
▁interact	-11.3461
euro	-11.3463
▁Angel	-11.3465
Calendar	-11.3466
▁Bon	-11.3469
hou	-11.3469
▁Gen	-11.3471
ontrast	-11.3475
Register	-11.3476
▁Hive	-11.3476
nLe	-11.3477
▁structures	-11.3477
▁disable	-11.3478
dcast	-11.348
Weight	-11.348
▁Change	-11.3481
▁tutorial	-11.3482
▁Contract	-11.3482
ligi	-11.3485
▁oppos	-11.3487
ested	-11.3487
quir	-11.3487
True	-11.3489
▁Notification	-11.349
cot	-11.3495
IA	-11.3497
▁quotes	-11.3506
REQUEST	-11.3506
outs	-11.3511
▁collector	-11.3513
▁transactions	-11.3513
when	-11.3513
prop	-11.3514
length	-11.3518
▁precision	-11.3518
hips	-11.3521
ico	-11.3522
args	-11.3522
Sum	-11.3523
Raw	-11.3525
▁Jen	-11.3526
ashi	-11.3526
▁queryPos	-11.3529
oper	-11.3529
▁cons	-11.353
▁startup	-11.353
▁ignite	-11.3532
mentor	-11.3533
first	-11.3533
Print	-11.3533
▁dropped	-11.3534
Matching	-11.3535
▁Build	-11.3544
Main	-11.3546
▁que	-11.3546
▁translation	-11.3548
▁Luc	-11.3548
tent	-11.355
Does	-11.3551
1/	-11.3552
▁vertical	-11.3554
▁Binary	-11.3556
▁fragment	-11.3556
▁convertTo	-11.3557
▁chose	-11.3561
stock	-11.3561
ott	-11.3562
▁statements	-11.3567
odo	-11.3568
Changes	-11.3574
acy	-11.3574
IR	-11.3579
mari	-11.3581
▁Pol	-11.3581
▁dip	-11.3581
▁scroll	-11.3589
Login	-11.3591
▁temporary	-11.3592
▁setEnabled	-11.3592
show	-11.3594
Hi	-11.3595
▁creator	-11.3595
▁getChild	-11.3596
▁assume	-11.3597
Library	-11.3599
▁Save	-11.3602
object	-11.3603
▁satisfied	-11.3605
ku	-11.3605
str	-11.3606
▁smo	-11.3608
77	-11.3611
2002	-11.3611
phones	-11.3611
▁determin	-11.3615
Daily	-11.3615
▁Geo	-11.3618
PORT	-11.362
▁attach	-11.3624
▁placeholder	-11.3628
teful	-11.3633
▁mess	-11.3633
▁admission	-11.3636
Latch	-11.3637
nFind	-11.3638
Corporation	-11.3639
▁getCode	-11.3642
▁ft	-11.3644
▁getStatusCode	-11.3644
▁2001	-11.3645
Ocean	-11.3648
54	-11.3649
▁Share	-11.3653
▁separator	-11.3653
▁Rob	-11.3654
▁DOUBLE	-11.3656
▁margin	-11.3657
▁Hard	-11.3659
▁impossible	-11.3661
▁substance	-11.3666
def	-11.3666
▁Solutions	-11.3667
Pod	-11.3673
▁irr	-11.3674
▁Clean	-11.3676
orous	-11.3676
▁compensation	-11.3679
arcel	-11.368
▁dialog	-11.3683
ammer	-11.3685
▁Agency	-11.3688
VC	-11.3688
ena	-11.369
bie	-11.369
▁checkNotNull	-11.3694
▁|=	-11.3695
vi	-11.3696
hanging	-11.3696
▁SERVICE	-11.37
▁Email	-11.3701
▁Random	-11.3701
FA	-11.3703
Golden	-11.3705
Features	-11.3706
▁wel	-11.3706
plan	-11.3713
after	-11.3715
▁Array	-11.3716
ua	-11.3716
▁Give	-11.372
Volume	-11.3734
▁controlled	-11.3734
Mask	-11.3736
afe	-11.3738
AP	-11.3738
BI	-11.3739
Annotations	-11.3743
ement	-11.3743
▁telephone	-11.3744
cord	-11.3751
being	-11.3751
xtensionRegistry	-11.3758
▁jar	-11.3761
lter	-11.3763
▁portable	-11.3763
ape	-11.3763
▁Ex	-11.3768
dequ	-11.3769
▁QueryUtil	-11.3771
▁wrapper	-11.3772
impression	-11.3775
lig	-11.3779
oli	-11.3779
Using	-11.3781
Over	-11.3785
▁PR	-11.379
Find	-11.3792
▁HttpResponse	-11.3797
▁LocalDate	-11.3801
▁4,	-11.3801
tein	-11.3803
Servlet	-11.3804
isis	-11.3806
rib	-11.381
▁experi	-11.3811
Customer	-11.3815
bad	-11.3816
▁1024	-11.382
▁Kafka	-11.3823
ckey	-11.3825
cca	-11.3825
▁entities	-11.383
▁10,	-11.3833
▁deleted	-11.3834
crap	-11.3835
osa	-11.3837
▁customized	-11.3839
ional	-11.3843
▁depends	-11.3844
▁glob	-11.3846
Copyright	-11.3848
▁concepts	-11.385
Completed	-11.385
▁Resume	-11.3851
tivation	-11.3853
▁acquisition	-11.3854
Dimension	-11.3857
guard	-11.3858
▁magn	-11.386
ocate	-11.3863
▁Pass	-11.3866
▁recogni	-11.3867
▁analyze	-11.3867
▁archive	-11.3868
Existing	-11.3871
nOf	-11.3877
lla	-11.3878
▁POST	-11.3882
umber	-11.3884
mobile	-11.3885
Services	-11.3887
filter	-11.3895
▁invitation	-11.3897
bon	-11.3897
Org	-11.3898
Proto	-11.3903
EC	-11.3903
INT	-11.3908
alty	-11.3909
Visible	-11.3912
cho	-11.3915
Mi	-11.3916
rome	-11.3917
2-	-11.3918
▁canvas	-11.3921
▁Bookmark	-11.3922
Rail	-11.3923
ranchi	-11.3924
▁ends	-11.3925
▁succeed	-11.3926
▁jsonObject	-11.3927
nc	-11.3934
▁documentation	-11.3936
▁seeds	-11.3937
TableName	-11.3938
▁Reader	-11.394
▁Child	-11.3943
hematic	-11.3944
ira	-11.3944
▁compound	-11.3944
oop	-11.3944
MO	-11.3948
▁Bundle	-11.3948
cin	-11.3951
▁getOutput	-11.3951
Integrate	-11.3952
Tool	-11.3952
Show	-11.3953
Through	-11.3961
Rel	-11.3965
habi	-11.3965
▁composition	-11.3967
nUse	-11.3969
lib	-11.397
▁DATA	-11.397
Everything	-11.3972
▁participation	-11.3974
pplicant	-11.3976
▁Agent	-11.3976
inger	-11.3977
Furniture	-11.3979
▁Lab	-11.398
mid	-11.3981
Reply	-11.3984
▁Should	-11.3984
▁transmission	-11.3985
ification	-11.3987
Broker	-11.3989
ij	-11.399
Criteria	-11.3992
▁edited	-11.3993
▁fol	-11.3993
tability	-11.3999
tender	-11.4001
▁Second	-11.4009
nRo	-11.4011
cia	-11.4013
▁sentence	-11.4013
▁pk	-11.4017
Running	-11.4019
▁curve	-11.4019
pl	-11.4023
▁introduc	-11.4024
▁findAll	-11.4026
6)	-11.4026
▁Vo	-11.4029
▁expanded	-11.4031
mantic	-11.4031
▁Lat	-11.4035
▁250	-11.4035
▁frag	-11.404
Share	-11.4048
lining	-11.4048
▁'%	-11.4049
Fresh	-11.4052
▁Environment	-11.4053
▁proc	-11.4054
Pending	-11.4055
▁terminal	-11.4055
▁servers	-11.4056
▁ONE	-11.4056
nAdd	-11.4056
▁fake	-11.4057
eli	-11.4059
Flags	-11.4062
▁layers	-11.4063
▁occup	-11.4063
eem	-11.4064
omplicated	-11.4065
▁HTML	-11.4065
▁Stra	-11.4067
Direct	-11.4068
▁authors	-11.4069
▁referred	-11.4069
▁Alb	-11.4072
channel	-11.4073
▁sin	-11.4073
▁ISO	-11.4074
oncentrat	-11.4075
▁neg	-11.4077
▁queries	-11.4081
▁Wor	-11.4083
eller	-11.4084
▁120	-11.4085
▁Patient	-11.4087
▁squ	-11.4088
days	-11.4093
▁swing	-11.4094
opLambda	-11.4094
stead	-11.4095
▁Subscription	-11.4097
▁Tax	-11.4102
pan	-11.4106
▁browse	-11.4106
drop	-11.4108
Relationship	-11.411
▁compr	-11.4113
tlement	-11.4116
Worker	-11.412
▁gender	-11.412
Updated	-11.4122
Bit	-11.4124
charge	-11.4125
▁Prime	-11.4125
CR	-11.4127
pace	-11.4127
stitute	-11.4128
Mgr	-11.4129
▁tar	-11.413
Deleted	-11.413
CT	-11.4132
Eye	-11.4132
awai	-11.4136
ENTITY	-11.4138
nNote	-11.4143
itch	-11.4147
ential	-11.4147
itted	-11.4149
800	-11.415
▁spr	-11.415
▁corn	-11.4152
ddle	-11.4155
item	-11.416
FinderCache	-11.416
Con	-11.416
robe	-11.4162
▁math	-11.4164
▁organ	-11.4167
▁elem	-11.4168
].[	-11.4173
▁assignment	-11.4176
▁Catalog	-11.4176
MAX	-11.4176
inent	-11.4176
▁workspace	-11.4176
▁aut	-11.4178
tate	-11.4179
Receiver	-11.4179
iller	-11.4181
change	-11.4186
PL	-11.4187
idi	-11.419
▁Connector	-11.4191
Pass	-11.4194
▁SP	-11.4195
▁MA	-11.4198
urning	-11.4199
▁throwable	-11.4202
▁accuracy	-11.4202
Bur	-11.4208
▁Module	-11.4211
gt	-11.4213
asted	-11.4214
▁vessel	-11.4214
▁Operator	-11.4216
▁cb	-11.4217
▁Easy	-11.4218
era	-11.4219
▁Ag	-11.4221
pin	-11.4225
Nick	-11.4226
▁situat	-11.4227
▁dimensions	-11.4231
▁representation	-11.4232
Cert	-11.4234
minate	-11.4239
UP	-11.4241
▁"#	-11.4242
▁requireNonNull	-11.4243
ersonnel	-11.4246
stain	-11.4247
Power	-11.4251
▁LinkedList	-11.4252
arms	-11.4252
▁getEndpoint	-11.4253
och	-11.4255
image	-11.4257
▁coal	-11.4257
sufficient	-11.4259
ticated	-11.4262
▁Computer	-11.4264
▁Mutable	-11.4264
▁flavo	-11.4264
▁wr	-11.4264
update	-11.4266
orporation	-11.4269
teria	-11.4269
▁sat	-11.4274
used	-11.4277
Delta	-11.4282
▁cosm	-11.4283
month	-11.4284
▁cycl	-11.4284
▁Write	-11.4284
spects	-11.4285
Foot	-11.4289
label	-11.429
urist	-11.4295
Car	-11.4297
▁Sign	-11.4299
Public	-11.4301
▁Plugin	-11.4304
▁Roll	-11.4309
▁2020	-11.431
Star	-11.4311
▁Domain	-11.4311
opper	-11.4313
▁2.	-11.4313
▁consequence	-11.4314
509	-11.4316
▁bold	-11.4316
▁authorization	-11.4316
Members	-11.4318
Pal	-11.4318
▁realiz	-11.432
orphan	-11.432
▁crop	-11.4322
67	-11.4323
nU	-11.4324
▁requests	-11.4325
angel	-11.4325
▁cleaner	-11.4329
▁equivalent	-11.4329
imp	-11.4331
▁getClassLoader	-11.4331
▁Memor	-11.4331
allowe	-11.4334
cre	-11.4336
known	-11.4337
▁nextToken	-11.4337
dul	-11.434
▁CountDownLatch	-11.434
▁5,	-11.4342
▁trailer	-11.4342
Paths	-11.4346
Where	-11.4346
▁bid	-11.4347
▁faces	-11.4349
tric	-11.435
Composite	-11.435
rence	-11.4351
Scale	-11.4352
▁paths	-11.4355
-20	-11.4356
Unexpected	-11.4357
▁Stan	-11.4357
Word	-11.4359
local	-11.4361
▁Course	-11.4362
▁blob	-11.4363
Zero	-11.4364
isAssignableFrom	-11.4365
rmal	-11.4366
▁outcomes	-11.4367
DJ	-11.4368
▁poss	-11.4368
▁ignored	-11.437
▁distributed	-11.4371
▁Match	-11.4371
graph	-11.4373
▁scores	-11.4374
▁cla	-11.4374
cf	-11.4375
▁Blog	-11.4375
PA	-11.4375
▁MD	-11.4378
▁overw	-11.4379
Jar	-11.438
▁automat	-11.438
▁activate	-11.4381
Until	-11.4381
SM	-11.4384
wall	-11.4384
sTo	-11.4385
Ext	-11.4388
▁1.5	-11.4388
request	-11.439
oth	-11.4391
▁putAll	-11.4392
▁AT	-11.4395
Relation	-11.4396
newsletter	-11.4397
▁Learning	-11.4401
Aggregator	-11.4402
▁Language	-11.4403
geon	-11.4405
Off	-11.4405
Parse	-11.4406
▁sections	-11.4406
▁userName	-11.4407
Mother	-11.4407
uc	-11.4407
rich	-11.4409
▁ranking	-11.4411
Separator	-11.4412
allet	-11.4412
▁Three	-11.4413
Lines	-11.4413
▁potentially	-11.4413
▁Robot	-11.4416
▁lim	-11.4421
tree	-11.4421
▁Picture	-11.4422
VM	-11.4425
▁Pin	-11.4426
▁Pop	-11.4428
▁outer	-11.4433
icals	-11.4436
owners	-11.4438
cipal	-11.4439
▁matrix	-11.4441
▁httpServlet	-11.4443
Currently	-11.4443
lover	-11.4446
cIt	-11.4449
phy	-11.445
mega	-11.4451
ssibility	-11.4451
▁therap	-11.4452
▁phones	-11.4453
LE	-11.4454
▁warn	-11.4456
Same	-11.4456
▁peek	-11.4459
▁replaceAll	-11.446
▁invoice	-11.446
Static	-11.446
Extensions	-11.4463
▁setDefault	-11.4466
RP	-11.4466
ggl	-11.4467
▁Available	-11.4471
▁entering	-11.4472
▁NONE	-11.4473
DEFAULT	-11.4473
▁marketplace	-11.4473
▁heading	-11.4475
Duplicate	-11.4476
iv	-11.4477
remier	-11.4481
Pipeline	-11.4484
▁collections	-11.4484
▁Summ	-11.4484
▁evt	-11.4487
▁dst	-11.4487
▁unus	-11.4487
▁differences	-11.4488
5)	-11.4489
▁controls	-11.4491
zo	-11.4494
Destination	-11.4495
▁Wind	-11.4496
trike	-11.4496
▁GP	-11.4498
▁OutputStream	-11.4498
▁relations	-11.4504
cas	-11.4507
▁reporter	-11.4507
▁exposed	-11.4508
hei	-11.4509
▁Aff	-11.451
▁eval	-11.451
Partitions	-11.4511
▁weigh	-11.4513
▁HttpStatus	-11.4514
▁capability	-11.4514
▁Named	-11.4517
▁soapModel	-11.4518
Staff	-11.4522
▁PARSER	-11.4523
▁getNext	-11.4525
▁Administration	-11.4528
road	-11.4528
ermalink	-11.4532
unit	-11.4534
rel	-11.4537
▁Bear	-11.454
å	-11.4545
Components	-11.4549
▁Website	-11.4551
cking	-11.4551
lower	-11.4554
▁rais	-11.4555
▁Ave	-11.4555
WITH	-11.4556
Started	-11.4557
amil	-11.456
▁Rev	-11.4561
number	-11.4564
▁outline	-11.4565
▁packet	-11.4567
minute	-11.4569
▁pending	-11.4569
▁drag	-11.457
▁Tele	-11.4573
missions	-11.4574
most	-11.4575
Redirect	-11.4575
▁Metro	-11.4577
],	-11.4578
▁resulting	-11.4581
xie	-11.4582
Learn	-11.4582
ypt	-11.4584
▁stru	-11.459
oc	-11.4592
▁concat	-11.4592
planet	-11.4593
▁Script	-11.4597
Area	-11.4602
plications	-11.4603
Preference	-11.4606
▁quantity	-11.4607
▁StringUtil	-11.4607
▁redirect	-11.4608
Money	-11.4611
Topology	-11.4611
Sign	-11.4612
aki	-11.4616
▁glo	-11.4617
▁Category	-11.4617
rder	-11.4618
▁diagnos	-11.4622
▁Option	-11.4623
two	-11.4624
thetic	-11.4629
rides	-11.4629
Completion	-11.4634
Old	-11.464
Feed	-11.4642
▁subsequent	-11.4643
▁Ce	-11.4645
▁norm	-11.4647
▁analys	-11.4648
2017	-11.4648
▁lit	-11.4648
▁recall	-11.4649
Consider	-11.465
▁occurred	-11.4653
▁ByteString	-11.4654
usion	-11.4654
▁applicable	-11.4655
▁Credit	-11.4655
DM	-11.4658
voca	-11.4658
▁helper	-11.466
ARRAY	-11.4661
5,	-11.4665
▁tester	-11.4665
osis	-11.4666
tting	-11.4668
entine	-11.467
▁Permission	-11.467
Contract	-11.4671
▁ByteBuf	-11.4671
Conversion	-11.4672
gged	-11.4673
Ministry	-11.4673
cker	-11.4676
nal	-11.4677
▁abstract	-11.4679
▁Stop	-11.4683
▁frequency	-11.4685
▁Authentication	-11.4687
Origin	-11.4691
Bridge	-11.4693
▁stages	-11.4693
▁ClassLoader	-11.4693
▁algorithm	-11.4694
ionally	-11.4694
▁getUserId	-11.4696
ddy	-11.4697
▁borrow	-11.4697
▁pal	-11.4701
Begin	-11.4707
tha	-11.4707
▁FL	-11.4708
rounded	-11.4708
▁Size	-11.471
▁getActive	-11.471
ewing	-11.4712
▁fold	-11.4715
▁Practi	-11.4715
▁cls	-11.4719
▁nested	-11.4719
Chapter	-11.472
ib	-11.472
Craft	-11.4721
▁bul	-11.4727
▁toByteArray	-11.4728
FINDER	-11.473
including	-11.473
▁Fu	-11.4733
▁Heat	-11.4735
▁getProject	-11.4739
ub	-11.474
lers	-11.474
▁setMax	-11.4742
PER	-11.4744
act	-11.4745
job	-11.4746
▁Cur	-11.4746
track	-11.4753
RI	-11.4755
▁READ	-11.4758
Series	-11.476
Segments	-11.4763
▁38	-11.4765
xab	-11.4766
Fetch	-11.4766
3-	-11.4766
bec	-11.4766
▁Having	-11.4768
▁getLabel	-11.477
stments	-11.4771
▁getCause	-11.4773
▁Choose	-11.4774
arity	-11.4777
▁Need	-11.4779
Following	-11.478
CACHE	-11.4782
▁gui	-11.4783
Instances	-11.4784
she	-11.4784
▁Kr	-11.4791
▁cro	-11.4791
ures	-11.4797
▁dig	-11.48
▁dispose	-11.4802
properties	-11.4814
▁getC	-11.4816
ila	-11.4817
Preferences	-11.4817
loud	-11.4818
Supported	-11.4818
FieldName	-11.4828
▁fas	-11.4829
▁VALUE	-11.4835
ExecutionContext	-11.4837
▁opposite	-11.4839
Pet	-11.4841
NC	-11.4841
▁tun	-11.4841
card	-11.4843
ros	-11.4844
▁ApiResponse	-11.4846
▁currentThread	-11.4848
▁variation	-11.485
Specific	-11.485
▁prom	-11.4851
pur	-11.4852
Wait	-11.4853
▁Clear	-11.4854
fense	-11.4855
Listeners	-11.4855
▁Corp	-11.4859
▁pub	-11.4865
▁Authorization	-11.4865
somewhere	-11.4868
▁widget	-11.4869
vice	-11.4869
▁supplied	-11.4872
enna	-11.4874
▁hub	-11.4875
Formatter	-11.4876
harmac	-11.4876
▁scr	-11.4878
inating	-11.4878
▁disabled	-11.4881
▁rolling	-11.4883
MW	-11.4884
▁locator	-11.4884
Vi	-11.4884
rip	-11.4885
Answer	-11.4886
▁stem	-11.4887
ene	-11.4887
▁featureID	-11.4888
Iterable	-11.4888
▁tweet	-11.4888
zona	-11.4891
▁Kind	-11.4892
abet	-11.4893
▁complet	-11.4894
iously	-11.4898
▁NC	-11.4899
1-	-11.4902
PageLink	-11.4902
Priority	-11.4903
rim	-11.4904
▁ratings	-11.4907
Suffix	-11.4907
▁resc	-11.4911
▁setHeader	-11.4913
Business	-11.4917
eged	-11.4918
ATION	-11.4922
Representation	-11.4923
Mar	-11.4924
▁treasur	-11.4925
▁newest	-11.4925
Foo	-11.4926
▁ui	-11.4927
▁123	-11.4928
▁mono	-11.493
Gen	-11.4931
gers	-11.4933
Forest	-11.4934
▁Include	-11.4934
rave	-11.4936
▁Analysis	-11.4937
ele	-11.4939
Override	-11.4939
sPer	-11.494
Assertion	-11.4941
▁copyright	-11.4942
▁getAction	-11.4943
▁overview	-11.4944
▁Break	-11.4947
looking	-11.4949
zi	-11.4949
ifying	-11.4954
vely	-11.4954
▁subs	-11.4955
*(	-11.4956
vesting	-11.4958
▁alive	-11.4959
ncert	-11.4959
assistant	-11.496
kra	-11.4963
▁EP	-11.4963
▁Express	-11.4966
ass	-11.4973
lder	-11.4974
Filters	-11.4974
▁Son	-11.4975
lif	-11.4977
St	-11.4977
▁limits	-11.4978
▁marker	-11.4978
WithService	-11.498
Mean	-11.4982
▁getDocument	-11.4985
▁enhanced	-11.4985
Atom	-11.4992
Program	-11.4992
Due	-11.5
▁OAuth	-11.5002
Annual	-11.5002
Behavior	-11.5003
USD	-11.5005
2019	-11.5006
▁Terr	-11.5006
▁Bus	-11.5006
rack	-11.501
through	-11.5012
OBJECT	-11.5014
▁getNum	-11.5015
▁4.	-11.502
▁spy	-11.502
▁Body	-11.5021
Axis	-11.5022
▁ANY	-11.5026
▁Nu	-11.5028
Removed	-11.5028
▁Yo	-11.5029
▁SINGLE	-11.503
mel	-11.504
Click	-11.504
Sec	-11.5042
▁plu	-11.5044
rival	-11.5045
56	-11.5046
ncil	-11.5047
letes	-11.5049
nsy	-11.505
▁produces	-11.5053
Aggregate	-11.5055
works	-11.5056
▁characteristics	-11.5056
TX	-11.5061
Generic	-11.5061
Execute	-11.5062
nQ	-11.5063
▁assembly	-11.5065
▁tablet	-11.5066
▁represented	-11.5067
▁JsonNode	-11.5067
ida	-11.507
▁shapes	-11.507
▁hosts	-11.507
▁accounting	-11.5071
▁operational	-11.5076
ixture	-11.5077
Checkpoint	-11.5086
▁phrase	-11.509
apt	-11.509
bre	-11.5091
▁refu	-11.5092
▁extent	-11.5093
▁legacy	-11.5094
▁languages	-11.5096
Orange	-11.5097
▁600	-11.5098
TOKEN	-11.5098
iser	-11.5099
▁exceed	-11.51
assa	-11.5103
▁Engineer	-11.5104
Acl	-11.5105
onda	-11.5107
Letter	-11.5107
78	-11.5107
hal	-11.5109
▁environments	-11.511
▁locally	-11.511
oker	-11.511
bble	-11.5112
▁Section	-11.5112
Regex	-11.5118
NULL	-11.512
▁setStatus	-11.5122
wick	-11.5129
▁ban	-11.5129
orders	-11.5129
erto	-11.513
▁"\\	-11.5136
Processing	-11.5137
lv	-11.5141
Holiday	-11.5144
-19	-11.5146
Month	-11.5147
migration	-11.5151
▁getInput	-11.5157
Serialization	-11.5158
icon	-11.5159
▁Guard	-11.5159
TestHelper	-11.5161
▁facts	-11.5164
Plus	-11.5165
▁locate	-11.5165
tables	-11.5166
▁randomUUID	-11.5168
#1	-11.5168
piring	-11.5172
▁surf	-11.5172
▁pets	-11.5172
▁Tru	-11.5176
▁typeName	-11.5176
▁tests	-11.5176
5-	-11.5177
▁mod	-11.5177
delete	-11.5179
Modified	-11.518
qu	-11.518
▁singleton	-11.5182
marks	-11.5183
cor	-11.5183
▁startTime	-11.5184
tops	-11.5184
apor	-11.5189
Edition	-11.5193
sue	-11.5193
SU	-11.5194
Analysis	-11.5196
▁Medi	-11.5198
Progress	-11.5199
tension	-11.5201
SERVICE	-11.5205
Big	-11.5207
rove	-11.5209
ricks	-11.5209
Anti	-11.5212
▁CharSequence	-11.5214
phi	-11.5216
Nested	-11.5217
▁CT	-11.5221
▁NA	-11.5222
qui	-11.5223
nEvery	-11.5224
Fn	-11.523
trange	-11.5231
uation	-11.5231
▁serial	-11.5232
Refresh	-11.5232
▁shouldn	-11.5233
div	-11.5233
dges	-11.5236
anity	-11.5237
fer	-11.5237
Closed	-11.5238
Getter	-11.5241
▁cnt	-11.5242
▁sq	-11.5248
Direction	-11.525
rr	-11.5253
ContentType	-11.5258
EntryId	-11.5261
▁yo	-11.5262
spring	-11.5264
BE	-11.5265
gion	-11.5267
Labels	-11.5268
/{	-11.5269
tivated	-11.5273
INDEX	-11.5278
▁Dev	-11.5284
.5	-11.5289
TE	-11.5294
▁adjustment	-11.5294
Final	-11.5295
nGreat	-11.5296
▁measurement	-11.5297
▁Nav	-11.5298
▁classNameId	-11.53
Upload	-11.5301
▁editing	-11.5302
zu	-11.5304
▁Ticket	-11.5305
stop	-11.5305
Pane	-11.5307
Release	-11.5311
▁ClassNotFound	-11.5312
▁studie	-11.5316
security	-11.5316
RA	-11.5318
▁keywords	-11.5319
▁behaviour	-11.532
▁Movie	-11.5321
boss	-11.5321
▁keyboard	-11.5322
nCo	-11.5322
World	-11.5327
▁compan	-11.5329
Equal	-11.5329
▁replay	-11.5332
ues	-11.5333
Distance	-11.5334
▁pol	-11.5335
description	-11.5337
ibb	-11.534
▁recipient	-11.5343
▁BY	-11.5344
▁Para	-11.5345
▁Va	-11.5346
Functions	-11.5347
sk	-11.5354
sque	-11.5355
43	-11.5356
Utilities	-11.5356
▁Construction	-11.5357
▁Large	-11.5359
▁bull	-11.536
Utility	-11.5362
anic	-11.5362
▁acquired	-11.5366
bits	-11.5367
Hook	-11.5369
▁navigate	-11.5372
ipping	-11.5375
aver	-11.5376
▁getPage	-11.5376
Warning	-11.5378
mma	-11.5379
▁wake	-11.5379
regnan	-11.5383
Marketing	-11.5385
coin	-11.539
▁keyword	-11.5392
ked	-11.5392
▁ParseException	-11.5393
bag	-11.5395
Reset	-11.5397
OC	-11.5399
Trail	-11.5406
child	-11.5408
▁getStart	-11.5409
▁Profile	-11.5409
PO	-11.541
▁checkArgument	-11.541
BD	-11.5411
Drop	-11.5412
sted	-11.5416
rsing	-11.5417
Super	-11.5418
rtificial	-11.5421
▁applies	-11.5422
▁Memory	-11.5424
Wheel	-11.5424
▁Principal	-11.5426
Seq	-11.5428
evin	-11.5429
ref	-11.543
▁loader	-11.5432
▁promo	-11.5438
▁columnIndex	-11.5438
~	-11.544
ved	-11.5441
▁ssl	-11.5442
Enable	-11.5444
▁flatMap	-11.5447
▁boards	-11.5448
mbo	-11.5448
NODE	-11.5449
▁responses	-11.5449
▁emails	-11.5453
Three	-11.5454
oncentration	-11.5454
lum	-11.5457
700	-11.546
Credential	-11.546
▁writers	-11.5461
Le	-11.5461
Leave	-11.5464
company	-11.5465
Having	-11.5466
Errors	-11.5468
lips	-11.5469
FilePath	-11.5471
▁Protocol	-11.5471
tion	-11.5473
▁TEXT	-11.5475
num	-11.5476
▁Preconditions	-11.5477
▁'\''	-11.5481
▁elevat	-11.5482
tired	-11.5482
sql	-11.5488
Restaurant	-11.5491
▁Safe	-11.5494
IF	-11.5498
erra	-11.5502
pt	-11.5503
Aware	-11.5508
nDa	-11.5509
▁entityType	-11.5512
Nothing	-11.5514
▁classLoader	-11.5515
return	-11.5519
▁Mos	-11.552
▁getBoolean	-11.5521
68	-11.5525
week	-11.5527
ssert	-11.5527
▁alter	-11.5528
tty	-11.5529
Major	-11.553
▁signing	-11.5531
owa	-11.5534
nz	-11.5538
StandardCharsets	-11.5538
▁preferences	-11.5541
CREATE	-11.5541
Joe	-11.5541
kers	-11.5541
2016	-11.5542
Matches	-11.5542
Side	-11.5545
therapy	-11.5547
emy	-11.5548
▁shut	-11.5548
Nature	-11.5554
onserv	-11.5554
▁Quick	-11.5554
▁navigation	-11.5558
context	-11.5562
ads	-11.5564
▁Chart	-11.5565
laz	-11.5566
▁Gro	-11.5566
▁MAP	-11.5571
▁handy	-11.5571
(\"	-11.5571
ides	-11.5571
Mr	-11.5574
▁ag	-11.5575
NET	-11.5575
▁intern	-11.5576
ILL	-11.5581
dar	-11.5582
▁subjects	-11.5582
just	-11.5584
Payment	-11.5584
mad	-11.5586
▁announcement	-11.5586
▁constructor	-11.5589
/7	-11.5589
Cause	-11.559
▁decid	-11.559
▁parallel	-11.5591
▁anchor	-11.5594
Concept	-11.5596
ciation	-11.5597
▁classPK	-11.5603
▁Timestamp	-11.5604
▁Material	-11.5608
ogether	-11.5608
▁anno	-11.5608
▁mor	-11.5611
cover	-11.5612
▁instances	-11.5614
pkin	-11.5618
▁sem	-11.5618
Need	-11.5624
▁FileSystem	-11.5627
▁Ont	-11.5627
59	-11.5627
nife	-11.5628
Slice	-11.5631
gical	-11.5634
InstanceId	-11.5637
▁Protection	-11.5638
Move	-11.5639
▁scor	-11.5639
▁shadow	-11.5639
▁FIELD	-11.564
Dark	-11.564
])	-11.5645
watch	-11.5647
Bounds	-11.5648
▁businessObject	-11.5649
▁Panel	-11.565
DataSet	-11.5651
ashed	-11.5652
▁duplicate	-11.5661
ife	-11.5663
▁modules	-11.5664
▁harvest	-11.5666
iameter	-11.5667
mbling	-11.5678
▁publisher	-11.5686
cus	-11.5687
schema	-11.5693
▁Dataset	-11.57
▁constructed	-11.5701
▁"*	-11.5702
▁Import	-11.5702
▁Runtime	-11.5704
Availability	-11.5704
Choice	-11.5707
▁colon	-11.5707
Association	-11.5707
DAY	-11.5712
▁trainer	-11.5713
nCon	-11.5713
cyber	-11.5714
▁Study	-11.5716
▁Ever	-11.5719
▁ids	-11.5719
Forum	-11.5722
lighted	-11.5722
game	-11.5723
GS	-11.5724
▁lob	-11.5725
drive	-11.5726
Delivery	-11.5726
ReferenceCode	-11.5727
resources	-11.5727
▁binder	-11.5729
▁Tai	-11.5731
Bag	-11.5731
Scheduler	-11.5731
▁persons	-11.5733
mination	-11.5733
Observer	-11.5734
▁Artifact	-11.5736
▁Sup	-11.5737
▁ClientMessage	-11.5737
llen	-11.5745
Points	-11.5747
▁ren	-11.5747
▁0.5	-11.5748
150	-11.5751
▁granted	-11.5753
ogen	-11.5753
Primary	-11.5754
km	-11.5755
▁advis	-11.5759
▁placement	-11.576
▁pdf	-11.5762
▁declared	-11.5765
persistence	-11.5765
aves	-11.5766
▁captured	-11.5766
▁SO	-11.5768
orda	-11.5768
▁eli	-11.5769
Previous	-11.577
▁DO	-11.5771
▁Plat	-11.5772
Note	-11.5776
Subscriber	-11.5781
tocolMarshaller	-11.5782
cap	-11.5785
final	-11.5787
cele	-11.5787
▁getToken	-11.5787
iner	-11.579
att	-11.579
nthe	-11.5791
cientist	-11.5794
ccredit	-11.58
▁getMap	-11.5801
atric	-11.5801
ishment	-11.5808
▁automation	-11.5809
avour	-11.5811
OL	-11.5811
ORDER	-11.5813
▁dispatch	-11.582
▁snap	-11.5824
Man	-11.5827
Definitions	-11.5828
Random	-11.5829
▁beans	-11.583
▁PROP	-11.5831
▁Package	-11.5834
Handling	-11.5834
process	-11.5836
▁onChanged	-11.5837
Mappings	-11.5839
appear	-11.5842
▁getLength	-11.5844
▁buff	-11.5845
▁routes	-11.585
sla	-11.5851
▁entitle	-11.5852
▁laun	-11.5853
Matt	-11.5854
▁stroke	-11.5854
▁Deployment	-11.5855
▁Grad	-11.5859
oz	-11.5861
rity	-11.5861
▁Equipment	-11.5864
ctual	-11.5865
orable	-11.5865
▁enum	-11.5865
Whole	-11.5866
READ	-11.587
▁architect	-11.587
▁organiz	-11.5876
▁Archive	-11.5877
pture	-11.5878
▁javax	-11.588
Initial	-11.5882
▁External	-11.5883
▁filtered	-11.5885
▁Atlas	-11.5886
ev	-11.5888
▁brow	-11.5891
▁conve	-11.5891
rena	-11.5894
nstr	-11.5896
▁twi	-11.59
▁meter	-11.59
▁Dom	-11.5901
▁"3	-11.5901
urviv	-11.5901
▁meters	-11.5905
Health	-11.5905
▁longValue	-11.5908
▁seq	-11.5911
inder	-11.5912
FileSystem	-11.5914
mia	-11.5915
augh	-11.5916
▁Bad	-11.5917
▁mocked	-11.5919
);\	-11.592
creation	-11.5923
address	-11.5923
Fault	-11.5924
▁thir	-11.5927
Euro	-11.5927
walk	-11.5927
▁prot	-11.593
▁Close	-11.5935
▁streaming	-11.594
▁preserve	-11.5943
▁Enterprise	-11.5946
Username	-11.5947
▁MILLISECONDS	-11.5947
TER	-11.5949
▁mounted	-11.595
Teacher	-11.5951
nMa	-11.5952
▁visibility	-11.5952
stor	-11.5953
▁Fai	-11.5953
Indexes	-11.5954
Cookie	-11.5956
yle	-11.5964
iri	-11.5966
DATE	-11.5967
False	-11.5967
▁44	-11.5967
nBr	-11.5967
▁cached	-11.5968
▁Pack	-11.5968
ifer	-11.5969
Pure	-11.5969
Electronic	-11.597
rics	-11.5971
Facade	-11.5972
Safe	-11.5972
▁specifications	-11.5973
nze	-11.5976
▁haz	-11.5976
▁Bag	-11.5979
▁realm	-11.5979
ign	-11.5991
elder	-11.5991
Look	-11.5991
▁Api	-11.5993
▁removing	-11.5993
▁Bat	-11.5994
FORMAT	-11.5994
AE	-11.5995
▁observed	-11.6
PI	-11.6
▁logical	-11.6003
▁explanation	-11.6003
Live	-11.6004
nEven	-11.6006
nSa	-11.6007
Arn	-11.6007
load	-11.6008
▁asString	-11.6013
▁ending	-11.6017
Publisher	-11.6017
ME	-11.6019
ModelImpl	-11.6019
util	-11.602
bean	-11.6021
▁getAnnotation	-11.6023
250	-11.6025
hara	-11.6025
▁bench	-11.6027
sell	-11.6027
ied	-11.6028
▁Virtual	-11.6029
▁gateway	-11.6029
Inside	-11.603
ffle	-11.6032
▁repeated	-11.6033
agon	-11.6033
sheet	-11.6034
ciated	-11.604
▁apiVersion	-11.604
Workspace	-11.6041
▁withdraw	-11.6041
Creative	-11.6051
Modification	-11.6052
TM	-11.6053
▁countDown	-11.6054
▁Dimension	-11.6055
risti	-11.6059
▁getServer	-11.6061
Disabled	-11.6063
Receive	-11.6063
▁Validator	-11.6063
▁squa	-11.6064
▁statu	-11.6065
▁acl	-11.6066
nHa	-11.6069
asts	-11.607
▁Round	-11.607
▁geometry	-11.6072
pute	-11.6072
▁ni	-11.6072
een	-11.6072
iva	-11.6073
only	-11.6075
▁Swa	-11.6075
owner	-11.6076
EN	-11.6076
▁embedded	-11.6082
▁router	-11.6083
▁heads	-11.6083
▁references	-11.6084
▁attributeName	-11.6085
Ã	-11.6086
icket	-11.6086
Ok	-11.609
eries	-11.6091
▁getIdentifier	-11.6093
runk	-11.6101
▁parsed	-11.6102
▁variant	-11.6105
▁calc	-11.6105
▁Performance	-11.6106
Bound	-11.6107
books	-11.611
here	-11.6112
▁Follow	-11.6116
▁methodName	-11.6118
CI	-11.6118
Replace	-11.6119
▁vir	-11.612
Discovery	-11.612
late	-11.6122
charging	-11.6123
▁enroll	-11.6123
▁gem	-11.6124
Team	-11.6128
tically	-11.613
▁voc	-11.613
rog	-11.613
▁retai	-11.613
▁permit	-11.6132
▁partial	-11.6134
▁qualification	-11.6134
▁connecting	-11.6139
stick	-11.6141
parent	-11.6141
▁Counter	-11.6141
bl	-11.6141
▁pie	-11.6144
Special	-11.6144
fill	-11.6144
ody	-11.6146
▁focuse	-11.6147
▁Tile	-11.6148
easons	-11.6149
▁Cy	-11.6151
▁Layout	-11.6151
La	-11.6151
EX	-11.6157
array	-11.6158
▁intent	-11.6159
ByteArray	-11.6159
custom	-11.6161
toon	-11.6162
▁copies	-11.6166
opped	-11.6166
▁PROPERTY	-11.6166
▁Callable	-11.6167
ABLE	-11.6169
▁extensions	-11.6171
▁getParameters	-11.6172
▁9.	-11.6173
IM	-11.6176
gov	-11.6176
▁getBase	-11.6177
nOver	-11.6179
ONE	-11.618
match	-11.6184
amin	-11.6186
eering	-11.6186
▁MB	-11.6187
▁getSize	-11.6188
best	-11.6188
▁optimal	-11.6189
▁Tre	-11.619
Audit	-11.6191
▁Tool	-11.6194
logging	-11.6194
▁CC	-11.6198
have	-11.6198
uffered	-11.6198
▁Manual	-11.6201
Capabilities	-11.6201
▁profiles	-11.6204
email	-11.6206
▁cube	-11.6207
ushed	-11.6209
▁Techn	-11.6211
left	-11.6213
▁tiles	-11.6213
-11	-11.6217
CM	-11.6221
cell	-11.6222
▁billing	-11.6225
▁bands	-11.6228
▁bay	-11.6228
▁PS	-11.623
General	-11.6232
▁Pur	-11.6232
nWhere	-11.6233
▁Resources	-11.6239
LINE	-11.6242
▁AI	-11.6242
DI	-11.6243
▁targeted	-11.6244
ICE	-11.6245
Overall	-11.6245
licate	-11.6246
Stub	-11.6247
▁valve	-11.6247
kar	-11.6249
ayed	-11.6256
▁Walk	-11.6259
Extra	-11.6262
nned	-11.6263
ockets	-11.6264
▁BE	-11.6265
▁43	-11.6266
Expert	-11.6267
otel	-11.6268
ends	-11.627
try	-11.6272
format	-11.6273
▁pp	-11.6273
▁getRow	-11.6273
stration	-11.6273
▁Bla	-11.6274
rule	-11.6274
unter	-11.6276
▁Transactional	-11.6283
Frequency	-11.6285
▁listeners	-11.6286
par	-11.6287
▁Certifi	-11.6288
illing	-11.6291
▁restoreStack	-11.6299
Variant	-11.6299
Writing	-11.6299
ower	-11.6299
ple	-11.6301
roma	-11.6303
▁Age	-11.6305
▁"{\"	-11.6306
aj	-11.6307
ili	-11.6308
▁Expr	-11.6308
79	-11.631
$3	-11.6311
Chart	-11.6313
▁underlying	-11.6313
task	-11.6315
▁immu	-11.6317
▁practitioner	-11.6318
Finished	-11.6319
bin	-11.6321
▁contracts	-11.6321
Premier	-11.6321
▁Suite	-11.6322
Deserializer	-11.6323
▁limitation	-11.6327
▁getItem	-11.6328
▁`	-11.633
racy	-11.6333
▁flip	-11.6334
▁hol	-11.6337
▁Supplier	-11.6337
▁Bou	-11.6338
▁barr	-11.634
PG	-11.6344
structor	-11.6344
Disk	-11.6344
▁MI	-11.6347
Upper	-11.6348
lizab	-11.635
raging	-11.6351
earning	-11.6351
Tenant	-11.6355
EventListener	-11.6355
▁Frame	-11.6358
74	-11.636
tomato	-11.6361
Fixed	-11.6363
nSt	-11.6363
OVE	-11.6364
ound	-11.637
▁receipt	-11.6373
rup	-11.6374
Invoke	-11.6379
But	-11.6382
dis	-11.6383
tri	-11.6384
block	-11.6385
▁epi	-11.6388
Coder	-11.6388
Uid	-11.6389
Cnt	-11.639
Threads	-11.639
Hint	-11.6392
▁scal	-11.6393
nY	-11.6393
▁Know	-11.6397
▁Authority	-11.64
**	-11.6401
asc	-11.6404
▁nextInt	-11.6411
Chamber	-11.6413
▁incoming	-11.6414
▁operators	-11.6415
▁Bull	-11.6415
▁2.5	-11.6416
arker	-11.6416
mat	-11.6417
Exist	-11.6417
▁Sequence	-11.642
▁Question	-11.6421
rying	-11.6422
Robin	-11.6424
▁getAddress	-11.6424
▁getTotal	-11.6424
▁energ	-11.6429
ET	-11.6431
Projection	-11.6432
Black	-11.6433
marine	-11.6434
QueryParams	-11.6434
IL	-11.6435
ista	-11.6435
fo	-11.6436
▁sy	-11.6437
ION	-11.644
▁Mean	-11.6441
itable	-11.6443
oid	-11.6444
▁shard	-11.6447
▁Met	-11.6453
æ	-11.6455
256	-11.6457
-15	-11.6459
▁populate	-11.6459
UID	-11.646
seas	-11.646
FP	-11.6461
HERE	-11.6463
▁Self	-11.6463
▁preview	-11.6464
▁diagnosis	-11.6465
▁testCreate	-11.6468
rke	-11.6469
frame	-11.6473
access	-11.6475
▁SSL	-11.6475
▁shipp	-11.6476
ooth	-11.6478
oom	-11.6479
apped	-11.6481
EE	-11.6482
quil	-11.6486
▁360	-11.6486
▁ownership	-11.6488
pal	-11.6488
▁uniform	-11.6489
rock	-11.6489
▁coordinate	-11.6492
▁broke	-11.6493
bol	-11.6493
▁95	-11.6495
▁opponent	-11.6505
stones	-11.6506
▁watched	-11.6506
Flash	-11.6506
▁Ang	-11.6506
pot	-11.6507
Throw	-11.6507
▁customize	-11.651
lays	-11.6512
▁Rec	-11.6513
Asset	-11.6515
▁salary	-11.6516
4-	-11.6516
osity	-11.6521
▁Amb	-11.6522
nLa	-11.6522
▁Gene	-11.6523
▁Screen	-11.6524
▁fre	-11.6525
▁isEnabled	-11.6531
elected	-11.6531
▁dependency	-11.6535
nMi	-11.6536
▁exhaust	-11.6542
vous	-11.6545
DNA	-11.6549
itory	-11.6549
▁executeQuery	-11.6552
sole	-11.6553
▁getHost	-11.6554
mato	-11.6554
property	-11.6555
scope	-11.6556
cop	-11.6557
▁hydr	-11.656
▁triple	-11.656
Pack	-11.656
Constraints	-11.6561
▁Side	-11.6561
▁integrity	-11.6562
Include	-11.6562
▁neutral	-11.6565
▁sym	-11.6566
ect	-11.6567
note	-11.6568
fastest	-11.6569
Dictionary	-11.6569
▁enc	-11.6571
▁Ol	-11.6571
Mark	-11.6571
Quota	-11.6572
▁matched	-11.6572
▁39	-11.6573
Idx	-11.6573
▁retry	-11.6573
SCHEMA	-11.6574
Geo	-11.6578
▁manifest	-11.6579
pher	-11.6579
promise	-11.6581
▁Connect	-11.6583
0.00	-11.6584
itation	-11.6587
▁WA	-11.6587
spected	-11.6589
▁Story	-11.6589
lain	-11.6592
HTML	-11.6593
▁isInstanceOf	-11.6596
ool	-11.6596
▁pit	-11.6598
▁Endpoint	-11.6606
▁Logger	-11.6608
▁neighbour	-11.6608
ests	-11.6611
▁transformer	-11.6619
TIMEOUT	-11.662
▁Hal	-11.6622
ResultSet	-11.6623
hop	-11.6623
▁regulatory	-11.6626
sie	-11.6627
kg	-11.6628
face	-11.6628
▁migration	-11.6628
Ver	-11.6637
▁indent	-11.6645
▁Phone	-11.6647
kind	-11.6652
TA	-11.6653
▁Engine	-11.6654
Convention	-11.6655
JS	-11.6656
▁charset	-11.6656
▁3.	-11.6657
▁LOG	-11.6657
ireless	-11.6659
▁presenter	-11.6661
Categories	-11.6662
▁SE	-11.6664
EndpointBuilder	-11.6666
inance	-11.6666
Ha	-11.6666
Media	-11.6667
▁respon	-11.6669
eeding	-11.6671
▁VM	-11.6671
lien	-11.6671
TAG	-11.6673
nBefore	-11.6673
Compare	-11.6675
andwi	-11.6676
horn	-11.6676
ewis	-11.6676
▁Trans	-11.6678
▁Cra	-11.6679
▁ORDER	-11.6682
▁Remove	-11.6685
▁reminder	-11.6691
ServletRequest	-11.6694
▁aggregation	-11.6696
round	-11.6698
ips	-11.67
▁facet	-11.6703
▁scanner	-11.6705
nOther	-11.6713
Into	-11.6714
wk	-11.6716
▁fau	-11.6717
▁titles	-11.6717
▁scheduler	-11.6718
Nice	-11.6718
▁replica	-11.6721
nStep	-11.6721
INSTANCE	-11.6721
▁Final	-11.6721
AB	-11.6722
annotation	-11.6723
▁Emp	-11.6724
▁override	-11.6725
▁Format	-11.6726
▁ki	-11.6726
▁git	-11.6731
▁rc	-11.6731
wi	-11.6733
static	-11.6734
pping	-11.6734
uni	-11.6734
Switch	-11.6734
press	-11.6736
4,	-11.6738
ssion	-11.6738
▁Pick	-11.674
oni	-11.6741
Distribution	-11.6743
▁MO	-11.6744
▁axis	-11.6745
▁52	-11.6746
▁Original	-11.6746
.7	-11.6752
▁allocate	-11.6755
gra	-11.6755
visa	-11.6759
Second	-11.6762
Tile	-11.6763
▁Edm	-11.6764
▁differ	-11.6765
iro	-11.6766
▁descriptors	-11.6769
Initializer	-11.6769
▁getItems	-11.6772
▁sn	-11.6774
▁Grant	-11.6779
Conn	-11.6779
writer	-11.6779
ffin	-11.6782
iche	-11.6782
/8	-11.6784
Req	-11.6786
Between	-11.6791
▁Trace	-11.6791
Push	-11.6792
Again	-11.6793
Tokens	-11.6794
/2	-11.6794
SI	-11.6795
Cast	-11.6795
1.0	-11.6795
tta	-11.6797
actic	-11.6797
eigh	-11.6798
▁restored	-11.6798
7)	-11.6798
Analyzer	-11.6799
▁Poly	-11.6801
▁handled	-11.6801
▁Input	-11.6803
▁frames	-11.6807
plus	-11.6807
MODE	-11.6807
▁reflection	-11.6807
▁BIGINT	-11.6808
Tip	-11.6809
Contents	-11.6809
UserId	-11.6809
lotte	-11.681
▁pig	-11.681
pad	-11.6814
nders	-11.6815
▁animation	-11.6815
mill	-11.6816
=%	-11.6819
lbert	-11.682
awa	-11.6823
▁relate	-11.6824
ether	-11.6825
eran	-11.683
▁dirt	-11.683
nRead	-11.6831
▁necessar	-11.6832
Yet	-11.6833
scaping	-11.6834
prise	-11.6834
search	-11.6835
2013	-11.6838
Resolution	-11.6839
Addr	-11.6839
Membership	-11.6839
▁cu	-11.6839
Wiki	-11.684
rly	-11.6842
▁serialized	-11.6845
▁hy	-11.6848
Getting	-11.6849
▁DATE	-11.6849
▁sail	-11.685
▁cf	-11.6855
Shared	-11.6856
▁warehouse	-11.6857
▁getCount	-11.686
▁pod	-11.6861
PP	-11.6864
essed	-11.6866
Govern	-11.6866
iki	-11.6866
administrative	-11.6866
▁Technical	-11.6868
nPost	-11.6869
Mad	-11.687
▁Paint	-11.6873
▁orderBy	-11.6876
May	-11.6876
▁cleanup	-11.6877
document	-11.6877
▁BOOLEAN	-11.6881
race	-11.6881
aba	-11.6882
▁downloaded	-11.6884
ColumnName	-11.6885
DIR	-11.6888
nea	-11.6891
output	-11.6891
aire	-11.6893
▁Jdbc	-11.6894
click	-11.6895
▁roots	-11.6895
litter	-11.6898
▁envelope	-11.6899
Far	-11.69
Private	-11.6903
arketplace	-11.6908
▁getPartition	-11.6908
▁VA	-11.6909
habilit	-11.6912
dressing	-11.6916
▁PathParam	-11.6917
dgment	-11.6918
dual	-11.692
▁Matcher	-11.6921
serve	-11.6924
ssertArrayEquals	-11.6926
▁boots	-11.6926
Revenue	-11.6927
NUMBER	-11.6929
LENGTH	-11.693
Latest	-11.693
rming	-11.6932
▁getExpression	-11.6933
Light	-11.6935
ows	-11.6936
▁GL	-11.6936
ars	-11.6936
Named	-11.6941
lance	-11.6942
pil	-11.6944
▁consent	-11.6945
▁Complex	-11.6945
▁vacuum	-11.6946
Links	-11.6949
apest	-11.6951
▁cc	-11.6951
gulation	-11.6954
lis	-11.6955
▁onSuccess	-11.6958
forward	-11.6959
2015	-11.6959
▁getTitle	-11.696
▁oldest	-11.6961
El	-11.6962
tactic	-11.6962
▁Trad	-11.6964
Dispatcher	-11.6965
placing	-11.6967
▁coll	-11.6972
nMar	-11.6972
main	-11.6973
MenuItem	-11.6974
▁Im	-11.6974
gel	-11.6975
uates	-11.6975
pound	-11.6975
▁Constraint	-11.6981
mal	-11.6987
▁41	-11.6991
shed	-11.6993
ReadOnly	-11.7
▁maps	-11.7
product	-11.7003
Cancer	-11.7003
nin	-11.7004
▁GA	-11.7007
Flush	-11.7007
rious	-11.7011
▁Zone	-11.7013
▁corr	-11.7013
Returns	-11.7014
▁Animal	-11.7017
▁Jer	-11.7023
▁isNotEmpty	-11.7027
▁Speed	-11.703
▁getLog	-11.703
hole	-11.7036
▁Eag	-11.7038
▁Bor	-11.704
Logging	-11.704
▁Tea	-11.7041
▁province	-11.7043
lick	-11.7045
▁TH	-11.7045
▁'\	-11.7048
▁processInstance	-11.7048
Dragon	-11.705
▁analytics	-11.7051
ales	-11.7053
spo	-11.7053
▁persistence	-11.7054
aut	-11.7054
▁Sol	-11.7055
▁6.	-11.7056
▁dependent	-11.7057
▁prest	-11.7057
▁Survey	-11.7057
LG	-11.7058
▁Vertex	-11.706
▁vac	-11.7062
▁Gor	-11.7062
▁passes	-11.7067
▁Emi	-11.7067
grade	-11.7068
liber	-11.7071
▁Native	-11.7079
▁Planning	-11.7079
▁bin	-11.7081
depth	-11.7082
ault	-11.7082
▁ver	-11.7084
▁transformed	-11.7085
▁Pri	-11.7086
▁EObject	-11.7087
▁Static	-11.7087
▁getFilter	-11.7088
ABC	-11.7088
amb	-11.7089
▁notNull	-11.709
package	-11.7091
72	-11.7091
▁administrator	-11.7091
▁httpInvoker	-11.7092
▁Ec	-11.7092
Implementation	-11.7093
jan	-11.7093
CONTEXT	-11.7098
▁Bytes	-11.7098
▁Transfer	-11.7099
▁ServiceContext	-11.71
andy	-11.7101
▁camel	-11.7102
fe	-11.7103
Sensor	-11.7105
▁structural	-11.7105
bly	-11.7108
cide	-11.7109
cting	-11.7109
▁getP	-11.711
ummy	-11.7111
nforcement	-11.7113
Berlin	-11.7115
▁integrat	-11.7115
UL	-11.7115
▁getUrl	-11.7118
cept	-11.7118
▁commen	-11.712
▁derived	-11.7121
▁merged	-11.7122
Ask	-11.7126
ssured	-11.7126
gui	-11.7127
Spi	-11.7129
Bus	-11.7131
▁Description	-11.7132
▁Broad	-11.7132
▁LONG	-11.7133
▁Complete	-11.7134
▁orig	-11.7134
▁Found	-11.7134
Queries	-11.7135
▁si	-11.7138
▁Was	-11.714
▁ordering	-11.7143
::	-11.7147
sured	-11.7148
sample	-11.7149
asy	-11.7152
NodeId	-11.7153
green	-11.7153
▁Wat	-11.7154
zip	-11.7155
DN	-11.7162
▁lane	-11.7163
▁Commercial	-11.7163
Writable	-11.7166
children	-11.7166
▁scient	-11.7174
▁getDate	-11.7175
▁ev	-11.7182
▁56	-11.7182
Hub	-11.7183
ENT	-11.7183
word	-11.7188
▁Scan	-11.7189
▁Parameterized	-11.719
▁asyncHandler	-11.7191
mach	-11.7194
ResourceAsStream	-11.7194
▁Answer	-11.7195
mart	-11.7197
▁Meeting	-11.7198
▁49	-11.7201
Father	-11.7204
▁buttons	-11.7206
lty	-11.7211
▁pum	-11.7212
tam	-11.7214
ame	-11.7217
0,	-11.7217
▁publishing	-11.7218
▁confirmation	-11.7219
▁Ref	-11.7221
▁5000	-11.7222
lab	-11.7224
▁Sm	-11.7226
ites	-11.7226
heat	-11.7226
rofession	-11.7226
Mission	-11.7227
yes	-11.7229
▁Offer	-11.7232
licit	-11.7232
▁ofNullable	-11.7233
Addresses	-11.7234
▁locked	-11.7237
▁START	-11.7238
▁Agr	-11.7239
▁Deb	-11.7241
Allow	-11.7242
▁Linux	-11.7244
▁Func	-11.7245
Render	-11.7246
▁getSelected	-11.7247
▁Exam	-11.7248
ged	-11.7248
isters	-11.725
▁Active	-11.7255
claim	-11.7257
▁attempts	-11.7259
▁strings	-11.7261
▁ES	-11.7262
HD	-11.7264
▁mac	-11.7269
▁Register	-11.7269
Forward	-11.7271
▁configured	-11.7275
▁IL	-11.7277
Backend	-11.7278
▁46	-11.728
Alert	-11.7282
▁sec	-11.7285
▁authorized	-11.7285
▁getContainer	-11.7285
atin	-11.7288
▁measur	-11.7291
pers	-11.7291
FOUND	-11.7294
▁LinkedHashMap	-11.7294
ase	-11.7295
TreeNode	-11.7295
▁AtomicInteger	-11.7295
▁Brooklyn	-11.7296
▁MCR	-11.7298
Castle	-11.7301
edge	-11.7301
CE	-11.7302
ership	-11.7304
▁Mode	-11.7305
▁gray	-11.7308
Cleaning	-11.7309
▁Brook	-11.731
din	-11.7311
▁tw	-11.7313
6,	-11.7314
TP	-11.7317
Iter	-11.7319
▁Title	-11.732
profile	-11.732
nclusion	-11.7321
hronic	-11.7321
HTTP	-11.7324
▁activ	-11.7325
Sorted	-11.7325
▁hybrid	-11.7326
▁AD	-11.7326
igu	-11.7328
▁annotations	-11.7329
▁milestone	-11.7332
spare	-11.7333
▁msgs	-11.7333
▁opens	-11.7335
▁FALSE	-11.7337
▁Audio	-11.7339
alcon	-11.734
▁rac	-11.734
▁getUuid	-11.7341
effective	-11.7341
poo	-11.7346
Fill	-11.7347
▁Pla	-11.7348
▁Produces	-11.7348
▁Editor	-11.7351
Feel	-11.7352
issa	-11.7352
▁threshold	-11.7357
▁Cle	-11.7357
▁HR	-11.7358
▁getD	-11.7359
HC	-11.736
▁tin	-11.736
nished	-11.7362
▁Scope	-11.7363
▁interceptor	-11.7365
ATTRIBUTE	-11.7367
▁Nd	-11.7369
▁Production	-11.7369
Skip	-11.737
▁Enum	-11.7372
ctic	-11.7372
▁Output	-11.7373
▁influ	-11.7377
▁optimize	-11.7377
liner	-11.7378
▁accu	-11.7379
▁juni	-11.7381
▁SA	-11.7383
▁bout	-11.7384
ifficulty	-11.7389
▁timing	-11.739
▁Payment	-11.7391
LP	-11.7393
▁mandatory	-11.7396
73	-11.7397
▁tracker	-11.7398
mend	-11.7399
template	-11.7399
about	-11.74
isciplin	-11.7401
uba	-11.7402
atri	-11.7403
▁Async	-11.7405
▁Relationship	-11.7411
Ops	-11.7411
tiff	-11.7412
uf	-11.7414
2014	-11.7416
▁md	-11.7417
Soap	-11.7418
CB	-11.7418
▁Instance	-11.7422
Loop	-11.7423
SERVER	-11.7432
Decimal	-11.7433
▁iv	-11.7439
▁Uni	-11.7441
Bind	-11.7441
Implement	-11.7446
FOR	-11.745
FILTER	-11.7452
SSL	-11.7453
hwa	-11.7454
▁Environmental	-11.7455
Bright	-11.7455
beat	-11.7455
uda	-11.7456
NA	-11.7457
desh	-11.7457
center	-11.7459
▁bits	-11.7462
oi	-11.7463
igi	-11.7464
▁uploaded	-11.7464
▁Immutable	-11.7464
.*	-11.7467
▁Guest	-11.7469
lem	-11.7469
▁restrictions	-11.747
▁oak	-11.747
▁doubleValue	-11.7471
regnant	-11.7472
▁TestUtils	-11.7473
▁enabl	-11.7473
ec	-11.7475
▁setField	-11.7476
hold	-11.7478
▁pil	-11.7479
span	-11.7479
▁Magic	-11.748
leet	-11.7481
Dependencies	-11.7482
Comments	-11.7484
001	-11.7488
Fire	-11.7489
eter	-11.7491
RAM	-11.7492
▁Medica	-11.7493
itcoin	-11.7497
Opt	-11.7498
▁mas	-11.7501
^2	-11.7508
▁Thing	-11.7509
tory	-11.7509
wind	-11.7512
▁Admin	-11.7512
Treatment	-11.7513
▁END	-11.7513
hard	-11.7513
▁Processor	-11.7514
▁Clin	-11.7515
rag	-11.7517
6-	-11.7517
1:	-11.7517
▁Button	-11.7518
▁hyp	-11.7519
▁"$	-11.7521
boo	-11.7522
ulnerable	-11.7522
▁closure	-11.7523
ndi	-11.753
ouri	-11.7533
7-	-11.7533
Virtual	-11.7533
tracted	-11.7533
bat	-11.7537
ttery	-11.7539
working	-11.7543
Stmt	-11.7543
▁existence	-11.7544
▁Tar	-11.7544
Font	-11.7545
rches	-11.755
▁Friend	-11.7551
bio	-11.7557
dos	-11.7558
▁72	-11.7562
Bits	-11.7562
▁Geometry	-11.7563
▁Ali	-11.7566
dependence	-11.7567
▁SUCCESS	-11.7567
▁compa	-11.757
▁jet	-11.757
OUT	-11.757
IE	-11.7579
ql	-11.7579
will	-11.7581
▁Everyone	-11.7583
▁Financ	-11.7583
1/4	-11.7583
quarters	-11.7583
intend	-11.7586
DataProvider	-11.7587
▁trash	-11.7593
Reporter	-11.7594
common	-11.7594
ortrait	-11.7594
ressed	-11.7596
▁bre	-11.7596
▁attrs	-11.7596
dresses	-11.7603
▁hint	-11.7603
▁ward	-11.7604
sulation	-11.7604
▁secured	-11.7605
WA	-11.7606
imultaneous	-11.7607
bul	-11.7607
MG	-11.7607
▁resolver	-11.7609
UC	-11.7613
▁removeAll	-11.7614
CH	-11.7614
PropertyName	-11.7614
▁probe	-11.7615
▁branches	-11.7615
Eval	-11.7616
▁openSession	-11.7616
keeper	-11.7616
Transition	-11.7616
▁intens	-11.7617
ErrorCode	-11.7618
▁Messages	-11.7618
▁projection	-11.7622
▁sketch	-11.7623
Jul	-11.7623
▁Med	-11.7624
▁des	-11.7625
aths	-11.7626
▁Nat	-11.7626
OriginalValues	-11.7626
▁Sets	-11.7627
dles	-11.7628
1000	-11.763
Clear	-11.7633
▁setString	-11.7634
ima	-11.7635
pass	-11.7637
▁AL	-11.7637
Exec	-11.7638
▁agenda	-11.7638
▁normalize	-11.7639
Commerce	-11.7639
▁getLocal	-11.7641
▁GROUP	-11.7643
▁referral	-11.7645
Scheduled	-11.7645
Chrome	-11.7647
▁SW	-11.7648
rost	-11.7651
▁dc	-11.7652
▁WITH	-11.7652
iled	-11.7653
▁QueryPos	-11.7654
▁substitute	-11.7655
uz	-11.7655
▁hyper	-11.7658
▁Util	-11.7659
▁releases	-11.7659
▁isFalse	-11.7661
▁Ty	-11.7665
▁Trigger	-11.7665
PT	-11.7667
▁dirty	-11.7667
▁Premi	-11.7668
▁writeInt	-11.7668
▁DataSource	-11.7669
▁hive	-11.767
▁stub	-11.7672
evi	-11.7672
bbed	-11.7674
Complex	-11.7676
acing	-11.7676
oops	-11.7677
nEn	-11.7678
fli	-11.768
erial	-11.7684
urst	-11.7684
Append	-11.7686
cluster	-11.7686
▁Working	-11.7688
bank	-11.7688
erals	-11.7691
itigation	-11.7692
corn	-11.7692
▁TIME	-11.7692
viation	-11.7697
CONTENT	-11.7697
Instant	-11.77
▁getBlock	-11.7701
umn	-11.7702
▁composed	-11.7705
▁sr	-11.7706
icker	-11.771
▁Div	-11.771
▁tick	-11.7711
▁getEvent	-11.7712
Online	-11.7712
▁getNamespace	-11.7715
▁neighbor	-11.7719
NFL	-11.772
Real	-11.7721
Mo	-11.7724
muni	-11.7725
Done	-11.7726
LOG	-11.7726
▁XMLStream	-11.7726
hab	-11.7728
rical	-11.7728
▁regex	-11.7728
▁periods	-11.773
ARE	-11.7733
00000001	-11.7736
▁unset	-11.7737
▁dictionary	-11.7737
Pages	-11.7743
tone	-11.7747
▁85	-11.7747
anga	-11.7748
▁getJob	-11.7751
queue	-11.7752
ats	-11.7753
Res	-11.7753
▁DataSet	-11.7758
▁INVALID	-11.7758
▁neither	-11.7762
strap	-11.7762
plates	-11.7762
▁Sus	-11.7763
▁Stack	-11.7764
▁Pages	-11.7765
76	-11.7766
▁gall	-11.7766
▁1970	-11.7768
Sa	-11.7769
domain	-11.777
Qualifier	-11.7771
its	-11.7773
▁Sony	-11.7774
speed	-11.7774
UR	-11.7775
QueryBuilder	-11.7776
AccessToken	-11.7777
Watch	-11.7777
DR	-11.7779
▁grace	-11.7779
']	-11.778
gain	-11.778
Managed	-11.7783
minating	-11.7786
▁setState	-11.7786
entity	-11.7788
ori	-11.7788
▁Queue	-11.779
itors	-11.779
umes	-11.7792
ays	-11.7798
▁Resid	-11.7801
▁5.	-11.7802
2/	-11.7803
Cmd	-11.7804
▁47	-11.7804
Ready	-11.7804
▁jo	-11.7807
▁paste	-11.7807
NN	-11.781
2000	-11.7811
ager	-11.7814
nema	-11.7818
Related	-11.7818
▁gauge	-11.7821
fu	-11.7822
Ra	-11.7823
▁spectrum	-11.7826
Tech	-11.7826
▁detection	-11.7827
▁Writer	-11.7827
erty	-11.783
TextField	-11.7831
▁containers	-11.7832
ito	-11.7832
▁Leader	-11.7832
▁Mod	-11.7833
▁banner	-11.7837
Struct	-11.7838
365	-11.7838
elief	-11.7841
tab	-11.7843
vince	-11.785
▁revision	-11.7851
▁permissions	-11.7851
pen	-11.7851
▁mergeFrom	-11.7853
Advisor	-11.7857
▁Binding	-11.7858
TF	-11.7861
▁cardi	-11.7865
mpressed	-11.7866
utic	-11.7869
▁FILE	-11.7872
▁"${	-11.7879
▁Volume	-11.788
▁infla	-11.788
Publish	-11.788
grow	-11.7881
uts	-11.7883
PE	-11.7885
Lib	-11.7886
ParserRuleCall	-11.7887
Fellow	-11.7889
Bad	-11.7891
Debug	-11.7894
▁Mix	-11.7895
Something	-11.7896
0)	-11.7897
ENDPOINT	-11.7898
▁symbols	-11.7899
Realm	-11.7905
▁modes	-11.7906
Distinct	-11.7909
Allocation	-11.791
pc	-11.7915
▁molecule	-11.7916
oving	-11.7917
BusinessObject	-11.7917
amper	-11.7918
wipe	-11.7919
▁subscriptionId	-11.7921
▁toUpperCase	-11.7921
cement	-11.7922
▁tas	-11.7922
▁Must	-11.7923
▁portlet	-11.7924
pons	-11.7925
▁Camel	-11.7925
Native	-11.7928
filing	-11.7931
▁UP	-11.7931
▁Vehicle	-11.7933
▁53	-11.7933
Exporter	-11.7935
Bulk	-11.7938
mine	-11.7939
▁echo	-11.794
rid	-11.7943
71	-11.7947
▁relat	-11.7948
..."	-11.7949
Modifier	-11.795
STORE	-11.7951
Deploy	-11.7952
▁getEnd	-11.7954
▁INTEGER	-11.7956
▁ya	-11.796
▁Photograph	-11.7961
▁unmarshall	-11.7961
Versions	-11.7964
pedia	-11.7965
rays	-11.7966
▁tearDown	-11.7966
▁dataSet	-11.7967
dem	-11.7971
illar	-11.7972
Cancel	-11.7975
▁ROOT	-11.7977
▁getApplication	-11.7977
plash	-11.7978
▁getAttributes	-11.7979
▁Display	-11.7981
tility	-11.7983
Claim	-11.7983
NEW	-11.7984
Small	-11.7984
▁checkpoint	-11.7985
scored	-11.7988
▁dam	-11.7988
mus	-11.7989
nCar	-11.7995
▁sensors	-11.7995
MI	-11.7997
ving	-11.7997
▁IOUtils	-11.7998
Logical	-11.8003
▁IExpr	-11.8004
ots	-11.8006
▁Factory	-11.8006
volve	-11.8007
▁FileUtils	-11.8009
7,	-11.801
AN	-11.8011
account	-11.8012
aceful	-11.8012
Written	-11.8012
RM	-11.8013
▁maximize	-11.8014
lect	-11.8015
-18	-11.8015
▁Eth	-11.8016
▁tp	-11.8017
tooth	-11.8025
▁Au	-11.8025
▁AR	-11.8026
▁attendee	-11.8031
▁Chat	-11.8034
phon	-11.8035
▁loading	-11.8035
▁exclude	-11.8035
Meter	-11.8036
DT	-11.8037
hoe	-11.8038
▁Ski	-11.8041
cies	-11.8044
wing	-11.8045
Capability	-11.8045
▁producers	-11.8046
▁Lis	-11.8047
▁purchases	-11.8047
▁Symbol	-11.8048
Portlet	-11.8049
Legal	-11.8051
900	-11.8055
nymore	-11.8058
▁eager	-11.8058
keeping	-11.8059
Al	-11.8061
Wildcard	-11.8061
▁kee	-11.8063
▁frozen	-11.8064
afra	-11.8065
condition	-11.8067
STATUS	-11.8068
▁License	-11.8068
▁Coordinate	-11.8068
▁vers	-11.8073
▁Stage	-11.8073
▁buck	-11.8074
gy	-11.8075
bubble	-11.8075
AQ	-11.8077
?)	-11.8077
▁imper	-11.8082
lateral	-11.8083
▁NonNull	-11.8083
▁threads	-11.8087
▁getCompanyId	-11.8088
WHERE	-11.8091
▁Stand	-11.8092
Pojo	-11.8095
▁commands	-11.8096
▁integer	-11.8098
▁suffix	-11.8099
Ignore	-11.81
▁Console	-11.81
Translator	-11.8101
Pa	-11.8112
Eventually	-11.8113
▁attendance	-11.8113
▁3.0	-11.8113
gr	-11.8113
▁statistic	-11.8118
RSS	-11.8123
ops	-11.8124
▁Dea	-11.8125
ReturnType	-11.8125
▁Audit	-11.8126
▁Total	-11.8127
▁Header	-11.8127
▁cor	-11.8129
▁PRO	-11.8129
▁restart	-11.813
▁Describe	-11.8131
▁Dur	-11.8131
▁prototype	-11.8131
rett	-11.8134
▁participant	-11.8135
vent	-11.8136
▁8.	-11.8137
$4	-11.8138
▁"&	-11.8138
▁getOperation	-11.814
▁Issue	-11.8141
REF	-11.8146
Upgrade	-11.8147
Hot	-11.8147
▁Managed	-11.8148
AttributeValue	-11.8149
Scenario	-11.815
▁willReturn	-11.8152
▁addTo	-11.8153
lve	-11.8155
▁intend	-11.8155
conf	-11.8157
Cfg	-11.8158
▁copyOf	-11.8163
▁CH	-11.8163
▁Term	-11.8164
▁readValue	-11.8167
▁CLIENT	-11.8168
▁emit	-11.8174
▁RouteBuilder	-11.8174
Replica	-11.8174
▁logging	-11.8175
BB	-11.8177
SyntaxException	-11.8178
ecture	-11.8182
ProcessInstance	-11.8185
spel	-11.8185
Windows	-11.819
▁getLogger	-11.819
AZ	-11.8191
mie	-11.8192
Requirement	-11.8193
▁prob	-11.8194
ChangeListener	-11.8195
▁cacheName	-11.8197
▁nextLong	-11.8198
▁partitions	-11.8199
▁imported	-11.8199
second	-11.8204
Verifier	-11.8204
Help	-11.8205
del	-11.8207
▁contributed	-11.8208
itter	-11.8209
▁unlimited	-11.8211
Candidate	-11.8212
▁Parser	-11.8217
Sent	-11.8224
etnam	-11.8224
▁decorated	-11.8226
Lifecycle	-11.8226
▁resourceName	-11.8227
aaa	-11.8228
▁laboratory	-11.8228
▁func	-11.8229
RV	-11.8231
rific	-11.8233
inity	-11.8235
Classification	-11.8235
rif	-11.8239
Terms	-11.8239
qualities	-11.8241
▁getPrimaryKey	-11.8242
avis	-11.8245
uisi	-11.8247
▁specify	-11.8247
dan	-11.8247
▁destinations	-11.8247
▁particle	-11.8248
aters	-11.8248
sponsive	-11.8249
ude	-11.8252
▁getTask	-11.8253
Syntax	-11.8256
▁ME	-11.8256
▁sneak	-11.8257
WE	-11.8258
▁Bit	-11.8264
▁getE	-11.8265
Company	-11.8265
▁blogs	-11.8267
▁10000	-11.8272
Ticket	-11.8274
ErrorMessage	-11.8274
▁durability	-11.8274
omi	-11.8274
▁Cast	-11.8274
▁setDescription	-11.8275
Rollback	-11.8276
Manufacturer	-11.8277
▁isBlank	-11.8279
Appender	-11.8282
lene	-11.8282
▁Assembly	-11.8283
▁implementing	-11.8283
tutor	-11.8284
▁Root	-11.8287
ccelerat	-11.8288
Dr	-11.8289
uan	-11.8292
ADDRESS	-11.8292
▁getTimestamp	-11.8293
ContractInner	-11.8295
▁comparator	-11.8295
adi	-11.8299
jpg	-11.83
Vision	-11.8302
Peer	-11.8303
▁Layer	-11.8304
▁emptyMap	-11.8306
Numeric	-11.8306
▁purp	-11.8308
▁rad	-11.8309
▁fixture	-11.8316
Voice	-11.8316
▁getVariable	-11.8317
shake	-11.8319
CU	-11.8321
Src	-11.8323
nches	-11.8324
aco	-11.8326
SHA	-11.8327
▁SupportBean	-11.8327
gs	-11.8327
iscal	-11.833
▁Chai	-11.8331
EventType	-11.8331
rror	-11.8334
Pi	-11.8336
put	-11.8341
party	-11.8342
▁sprin	-11.8346
acqu	-11.8346
▁inject	-11.8346
lay	-11.8348
▁dock	-11.8348
▁IE	-11.8348
Authority	-11.8349
(1)	-11.8353
▁abort	-11.8353
edication	-11.8357
2:	-11.8358
entu	-11.8358
preh	-11.836
reg	-11.8361
ajority	-11.8361
hate	-11.8361
nV	-11.8364
▁Azure	-11.8364
patient	-11.8365
Negative	-11.8366
▁mgr	-11.8368
▁Dy	-11.8369
▁backend	-11.8372
▁architectur	-11.8372
▁jam	-11.8374
▁Concept	-11.8375
▁EntityType	-11.8375
allo	-11.8377
Focus	-11.838
Fit	-11.8382
Localization	-11.8385
▁54	-11.8387
▁swe	-11.8387
▁MC	-11.8387
▁injection	-11.8388
▁Switch	-11.8388
▁definit	-11.839
▁getEntry	-11.8391
▁Gate	-11.8391
Speed	-11.8394
ElementType	-11.8396
sonal	-11.8396
▁kafka	-11.8401
▁FA	-11.8402
nContact	-11.8403
▁indicator	-11.8403
Restore	-11.8403
▁universal	-11.8404
Setter	-11.8404
Solution	-11.8405
▁nav	-11.8405
▁Track	-11.8405
▁BC	-11.841
Inventory	-11.8411
▁identification	-11.8411
consi	-11.8411
▁merchan	-11.8412
settle	-11.8419
invalid	-11.8422
▁Bee	-11.8423
▁jobId	-11.8425
▁measured	-11.8427
▁Send	-11.8429
CacheModel	-11.843
▁wal	-11.8431
wen	-11.8431
▁Flat	-11.8433
nTwo	-11.8435
hem	-11.8435
▁rings	-11.8436
ceived	-11.8436
nPer	-11.8436
▁blur	-11.8436
organ	-11.8438
▁randomString	-11.8439
cluded	-11.8439
header	-11.8444
nDoes	-11.8445
▁DELETE	-11.8446
▁createMock	-11.8447
earing	-11.8447
vation	-11.8451
LM	-11.8452
▁STATUS	-11.8452
▁Identity	-11.8453
shape	-11.8453
▁encoder	-11.8454
hp	-11.8455
nUn	-11.8455
Visit	-11.8455
▁Lim	-11.8456
Datasource	-11.8457
Published	-11.8457
▁retired	-11.8458
Unsupported	-11.8458
BT	-11.8459
ires	-11.8459
double	-11.8459
▁inf	-11.846
▁inva	-11.8462
▁Books	-11.8466
Concatenation	-11.8466
Video	-11.8466
ternal	-11.8467
DF	-11.8468
PrevAndNext	-11.8471
▁Soft	-11.8473
▁Types	-11.8473
▁preference	-11.8474
git	-11.8478
▁contra	-11.8481
ulated	-11.8483
VA	-11.8483
▁Qu	-11.8483
baz	-11.8484
ThreadLocal	-11.8485
bodi	-11.8486
kee	-11.8486
\")	-11.8486
suite	-11.8487
instance	-11.849
mins	-11.849
Architecture	-11.8491
▁compression	-11.8491
anned	-11.8492
MT	-11.8493
KeyValue	-11.8493
UPDATE	-11.8494
who	-11.8495
copy	-11.8496
Cr	-11.8504
VALUES	-11.8504
ois	-11.8505
lights	-11.8505
▁Gl	-11.8508
rring	-11.8515
Blank	-11.8515
Upon	-11.8518
▁hydro	-11.8519
▁Installation	-11.8519
▁incrementAndGet	-11.8519
Rpc	-11.8521
media	-11.8524
▁proportion	-11.8525
ailers	-11.8527
welling	-11.853
▁Wel	-11.8532
▁kil	-11.8532
WS	-11.8533
▁constitu	-11.8535
▁narrative	-11.8536
imo	-11.8539
▁nearest	-11.854
inc	-11.8541
specific	-11.8543
▁coordinator	-11.8544
▁HttpMethod	-11.8546
ngle	-11.8547
Fact	-11.855
▁observe	-11.855
▁getTransaction	-11.8551
generation	-11.8552
nVi	-11.8554
aming	-11.8557
PATTERN	-11.8558
▁facebook	-11.8558
MENT	-11.8559
▁measurements	-11.8562
Original	-11.8565
topic	-11.8567
▁horizontal	-11.8568
ello	-11.8568
ncis	-11.857
▁Gran	-11.8571
▁mesh	-11.8572
BO	-11.8578
▁Snow	-11.8579
Com	-11.858
▁sock	-11.8586
RT	-11.8587
nJoin	-11.859
HL	-11.8591
▁licens	-11.8592
START	-11.8603
TU	-11.8606
Grace	-11.8607
▁align	-11.8612
nCall	-11.8613
minimize	-11.8616
Recently	-11.8617
STATE	-11.8618
oxy	-11.8619
anilla	-11.862
▁Cer	-11.8621
Review	-11.8625
Hive	-11.8626
▁Spot	-11.863
dog	-11.8632
▁electro	-11.8634
▁Ring	-11.8634
SO	-11.8636
▁stopping	-11.8636
▁neu	-11.8639
-30	-11.864
▁gadget	-11.864
▁sens	-11.864
▁getReference	-11.864
lush	-11.8641
▁'}'	-11.8644
DL	-11.8647
▁Registration	-11.8648
▁CONTENT	-11.8648
PARTITION	-11.8649
▁Om	-11.865
urses	-11.8652
Heap	-11.8653
minant	-11.8653
▁returnValue	-11.8653
▁Extended	-11.8654
▁setMessage	-11.8655
▁ranges	-11.866
▁oldValue	-11.8662
▁filePath	-11.8668
Arm	-11.8672
▁Topic	-11.8674
▁Branch	-11.8677
▁uid	-11.8679
▁Vet	-11.868
References	-11.8681
CF	-11.8682
record	-11.8684
erie	-11.8685
▁pairs	-11.8689
▁RDF	-11.8692
BINDING	-11.8697
QL	-11.8699
▁VARCHAR	-11.8704
Policies	-11.8706
▁Bas	-11.8707
▁distributor	-11.8708
Additional	-11.8708
Labor	-11.8708
PropertyValue	-11.8709
▁proposals	-11.8712
▁consistency	-11.8712
▁transparent	-11.8714
_1_0	-11.8715
▁fromString	-11.8717
Author	-11.8718
▁Proxy	-11.8718
Edges	-11.8719
▁Hon	-11.8719
▁Month	-11.8726
ropr	-11.8728
BASE	-11.8731
▁Jar	-11.8736
2012	-11.8737
▁Av	-11.8738
▁swap	-11.8741
rb	-11.8742
▁metaData	-11.8745
ubb	-11.8747
▁getProcess	-11.8747
IBM	-11.8749
Quantity	-11.875
▁addListener	-11.8752
Configs	-11.8753
audi	-11.8753
▁SET	-11.8755
FE	-11.8755
}/	-11.8755
CN	-11.8761
region	-11.8766
anne	-11.8767
750	-11.877
Correct	-11.8773
▁negotiation	-11.8776
method	-11.8778
Cycle	-11.8779
Self	-11.878
CacheManager	-11.8781
▁suspension	-11.8781
Mod	-11.8783
QUERY	-11.8783
▁Activity	-11.8785
duction	-11.8786
▁neighbors	-11.8786
Ratio	-11.8786
▁chu	-11.8787
nMo	-11.879
▁mapped	-11.8791
▁universe	-11.8795
component	-11.8797
Character	-11.8798
MR	-11.8798
▁Buck	-11.8798
▁chai	-11.88
Question	-11.8803
writing	-11.8804
▁lists	-11.8807
▁correspond	-11.8808
▁Early	-11.881
Attempt	-11.8813
▁cigar	-11.8816
▁7.	-11.8823
merge	-11.8823
NumberOf	-11.8823
Supply	-11.8824
▁hints	-11.8827
▁specification	-11.8827
nSu	-11.883
insert	-11.8831
Jobs	-11.8833
▁diagnostic	-11.8835
▁assertion	-11.8839
▁Records	-11.8839
tivate	-11.8842
Scanner	-11.8844
▁REL	-11.8847
EntityManager	-11.8847
Half	-11.8852
▁intr	-11.8855
▁harness	-11.8857
Measurement	-11.8858
▁0.1	-11.8858
FileEntry	-11.8859
▁react	-11.8864
▁electron	-11.8864
▁EN	-11.8866
Poll	-11.8866
gated	-11.8868
author	-11.8869
Standard	-11.887
▁reservation	-11.887
ials	-11.8873
pus	-11.8874
▁getError	-11.8875
▁WS	-11.8879
▁Face	-11.8879
Digest	-11.8879
▁readOnly	-11.8879
netic	-11.8881
▁transmit	-11.8882
domin	-11.8883
▁Provider	-11.8883
▁Fla	-11.8883
▁acr	-11.8886
TEXT	-11.8889
▁checkout	-11.889
8)	-11.889
▁libraries	-11.8891
Called	-11.8892
HashCode	-11.8893
▁HttpRequest	-11.8894
▁mem	-11.8894
Temp	-11.8895
▁freeze	-11.8896
around	-11.8904
▁ports	-11.8904
continent	-11.8904
▁constraints	-11.8907
▁slave	-11.8909
asm	-11.8909
holder	-11.891
▁Extra	-11.891
Replication	-11.891
▁hostname	-11.8913
zz	-11.8914
▁reject	-11.8914
▁errorMessage	-11.8914
LS	-11.8915
▁Release	-11.8916
▁permitted	-11.8918
Clone	-11.892
Offering	-11.8922
▁classification	-11.8922
▁Jac	-11.8923
necess	-11.8929
▁Decor	-11.8932
▁Feed	-11.8933
▁Pl	-11.8933
▁getRegion	-11.8937
▁ApiException	-11.8938
▁bou	-11.8941
HR	-11.8943
OLD	-11.8944
▁HttpHeaders	-11.8944
SS	-11.8945
Br	-11.8945
▁Deep	-11.8948
COM	-11.8948
Submit	-11.8949
▁Cri	-11.8951
▁Reading	-11.8952
pay	-11.8952
Clean	-11.8952
▁Raw	-11.8953
Bill	-11.8953
cam	-11.8953
▁dashboard	-11.8954
▁OWL	-11.8955
▁bra	-11.8957
▁51	-11.8957
AF	-11.8963
Birthday	-11.8965
ived	-11.8965
simple	-11.8969
ela	-11.8973
cb	-11.8973
Launch	-11.8973
icks	-11.8977
▁EC	-11.8978
▁ende	-11.8979
▁Gir	-11.8979
▁cert	-11.8979
Bottom	-11.898
pond	-11.8982
fusion	-11.8985
▁concurrent	-11.8986
arraycopy	-11.8988
▁readInt	-11.8988
aug	-11.8991
Discount	-11.8993
▁Dummy	-11.8993
▁Shipping	-11.8996
▁findByUuid	-11.8996
ulf	-11.8997
▁66	-11.8999
Billing	-11.9008
▁Sort	-11.901
▁Images	-11.9011
city	-11.9015
Scroll	-11.902
enders	-11.902
strain	-11.9023
▁entityManager	-11.9024
Flight	-11.9024
Lambda	-11.9027
▁Parent	-11.9028
}}	-11.9029
▁cartridge	-11.9036
▁getExtension	-11.9036
thro	-11.9038
▁Var	-11.9038
▁DynamicQuery	-11.9045
phen	-11.9046
▁getOrder	-11.9046
▁cleaned	-11.9047
▁ObjectMapper	-11.9047
ider	-11.9048
Art	-11.9049
)*	-11.905
Phoenix	-11.9051
replacing	-11.9052
NameImpl	-11.9052
very	-11.9053
thm	-11.9054
▁sorts	-11.9054
Sheet	-11.9055
▁pageSize	-11.9055
iors	-11.9055
▁interpretation	-11.9057
▁elastic	-11.9057
lding	-11.9058
Sh	-11.9059
▁taskId	-11.906
Shutdown	-11.906
▁AP	-11.9061
ArgumentCaptor	-11.9065
Loaded	-11.9066
▁cry	-11.9069
▁wea	-11.9069
4.5	-11.9072
▁getM	-11.9073
unda	-11.9077
Dirty	-11.9077
▁beam	-11.9077
▁fraction	-11.9078
price	-11.9084
▁bolt	-11.9085
Restriction	-11.9086
tale	-11.9087
Criterion	-11.9087
▁hom	-11.9088
hle	-11.909
▁CACHE	-11.9092
ired	-11.9093
▁xpath	-11.9094
▁pixels	-11.9094
Ñ	-11.9095
Iteration	-11.9096
Leadership	-11.9098
▁expecting	-11.9099
Issue	-11.9103
Five	-11.9108
▁Colo	-11.9109
Ui	-11.9109
▁df	-11.9109
▁indicates	-11.9109
tools	-11.9109
▁anonymous	-11.911
▁departure	-11.9111
rod	-11.9111
▁pushed	-11.9115
Force	-11.9118
▁transferred	-11.9119
▁simulation	-11.9121
Decorator	-11.9122
oted	-11.9125
▁dive	-11.9125
SN	-11.9126
▁followers	-11.9127
▁assignments	-11.9128
hono	-11.913
▁shipment	-11.9131
▁Ky	-11.9131
▁zoom	-11.9132
LF	-11.9134
▁compiled	-11.9135
Spring	-11.9136
▁Leg	-11.9136
▁cra	-11.914
Platform	-11.9141
▁101	-11.9141
▁Lang	-11.9142
▁actors	-11.9143
▁FORMAT	-11.9143
2-3	-11.9143
nco	-11.9146
sions	-11.9148
Runnable	-11.9148
ValidationResult	-11.9148
itu	-11.915
City	-11.915
▁Bluetooth	-11.915
▁ZERO	-11.9152
▁Joy	-11.9153
NYC	-11.9154
▁unb	-11.9155
▁offerings	-11.9155
Lane	-11.9155
▁containsString	-11.9157
Destroy	-11.9157
Units	-11.9158
wake	-11.9158
terf	-11.9158
▁calculation	-11.9158
Impact	-11.9159
Try	-11.9162
dated	-11.9163
ondo	-11.9163
▁Reserve	-11.9167
Fish	-11.9171
▁Sto	-11.9173
Cash	-11.9174
oir	-11.9178
IsSet	-11.9179
▁getList	-11.9184
▁JSONArray	-11.9185
▁gc	-11.9186
Viewer	-11.9192
nHis	-11.9193
Routing	-11.9195
▁getRule	-11.9199
reak	-11.9204
▁setContext	-11.9205
edu	-11.9205
??	-11.9207
Screen	-11.9208
Kafka	-11.9209
liff	-11.9212
Blue	-11.9214
▁Spark	-11.9215
▁rollback	-11.9217
ditions	-11.9217
good	-11.9219
iry	-11.922
rope	-11.9222
▁3.5	-11.9223
large	-11.9223
▁Publisher	-11.9224
▁Matchers	-11.9225
rch	-11.9226
▁planner	-11.9226
▁BufferedReader	-11.9227
▁Welcome	-11.923
▁administ	-11.923
Ssl	-11.923
Extended	-11.923
exp	-11.9231
chemistry	-11.9233
▁outputStream	-11.9233
▁amb	-11.9235
▁addElement	-11.9235
lid	-11.9237
▁topology	-11.9241
▁scheduling	-11.9243
▁77	-11.9247
Embedded	-11.9248
Grade	-11.9249
Don	-11.925
sco	-11.925
▁tv	-11.9251
Indices	-11.9252
▁alternatives	-11.9254
QName	-11.9254
▁Export	-11.9257
member	-11.9258
▁credential	-11.926
Proposal	-11.9261
Testing	-11.9262
▁lastIndexOf	-11.9265
▁routing	-11.9266
configuration	-11.9266
▁scre	-11.9267
rust	-11.9267
Identification	-11.9268
ChangeEvent	-11.9268
pit	-11.927
▁'/'	-11.9272
Located	-11.9277
enorm	-11.9278
Days	-11.928
CollectionId	-11.928
SOURCE	-11.9282
nVer	-11.9283
▁inclusive	-11.9284
ome	-11.9285
▁addProperty	-11.9286
NAS	-11.9287
Hierarchy	-11.9287
Manufactur	-11.9288
▁bracket	-11.9291
▁Portal	-11.9291
▁refine	-11.9292
FactoryUtil	-11.9294
▁"//	-11.9294
▁ep	-11.9296
▁Elli	-11.9296
▁Password	-11.9296
▁mailbox	-11.9296
cG	-11.9297
▁persistent	-11.9301
▁nest	-11.9301
ament	-11.9303
sphere	-11.9305
gging	-11.9306
▁privilege	-11.9306
	-11.9309
320	-11.9309
UM	-11.931
gic	-11.9312
▁fixtures	-11.9312
Several	-11.9313
▁GT	-11.9313
Txn	-11.9314
▁verb	-11.9318
Removal	-11.9319
▁logic	-11.932
▁vot	-11.9321
Shard	-11.9323
Rain	-11.9323
Hits	-11.9326
etics	-11.933
Wh	-11.9333
▁Split	-11.9335
Visibility	-11.9337
rap	-11.9339
▁findByG	-11.9339
▁Cookie	-11.934
▁paragraph	-11.9341
▁Ill	-11.9342
Browser	-11.9342
boards	-11.9342
iveness	-11.9343
Relative	-11.9346
des	-11.9347
Filename	-11.9348
▁observer	-11.9349
sign	-11.9349
▁benchmark	-11.9353
ParentElement	-11.9354
▁Employee	-11.9357
▁activation	-11.9361
Buf	-11.9363
▁getImage	-11.9363
nUsing	-11.9365
BR	-11.9367
▁clientResponse	-11.9367
▁collecting	-11.9367
▁credits	-11.9367
oco	-11.9368
owed	-11.9368
ippi	-11.9369
▁cho	-11.937
Explorer	-11.9374
▁createTest	-11.9376
HO	-11.9377
unset	-11.9377
▁dummy	-11.9378
Exclude	-11.9379
Jane	-11.9379
Sar	-11.938
▁audiences	-11.9384
.30	-11.9384
▁Selection	-11.9385
Awesome	-11.9388
tails	-11.9388
▁Hoodie	-11.9389
▁sacrifice	-11.939
450	-11.9392
mbled	-11.9392
GroupName	-11.9394
hamber	-11.9394
▁closest	-11.9397
Estimate	-11.9401
cco	-11.9403
vit	-11.9403
HandlerContext	-11.9405
▁verifier	-11.9405
heart	-11.9407
zone	-11.9408
Lu	-11.9409
white	-11.9409
TypeInfo	-11.9413
-16	-11.9414
Journal	-11.9417
▁targets	-11.9419
▁promises	-11.9419
▁slop	-11.9421
▁Works	-11.9422
▁affects	-11.9423
▁addr	-11.9428
vert	-11.9431
TR	-11.9431
ifier	-11.9432
▁getA	-11.9433
▁lazy	-11.9433
UNIT	-11.9437
fr	-11.9437
▁Twin	-11.944
ettled	-11.944
IG	-11.944
She	-11.9441
▁bat	-11.9442
▁Position	-11.9443
▁synthetic	-11.9444
▁intersection	-11.9446
Grant	-11.9447
▁NS	-11.9447
nPrevious	-11.9447
Compression	-11.9449
▁getSystem	-11.945
Article	-11.945
ombat	-11.9451
▁closeSession	-11.9451
▁Discovery	-11.9452
▁conjunction	-11.9453
Maker	-11.9455
Campaign	-11.9455
▁handles	-11.9456
▁indices	-11.9457
▁Comparator	-11.9457
Contributor	-11.9458
▁Drug	-11.9459
Compiler	-11.946
TH	-11.9461
GC	-11.9465
▁advertisement	-11.9465
▁subscriber	-11.9465
VAL	-11.9466
raise	-11.9467
▁combo	-11.9467
▁Whit	-11.9467
quer	-11.9468
LO	-11.9468
▁Bol	-11.9469
js	-11.947
asp	-11.9472
arg	-11.9473
▁setKey	-11.9477
:15	-11.9478
bility	-11.9478
▁addValue	-11.9478
hear	-11.9479
lted	-11.9479
Submission	-11.948
▁pause	-11.9481
volved	-11.9482
AR	-11.9483
▁Options	-11.9483
FO	-11.9484
png	-11.9485
▁baos	-11.9487
tling	-11.9487
taken	-11.9487
Fixture	-11.9489
▁Buffer	-11.9489
close	-11.9489
▁prep	-11.9491
family	-11.9491
License	-11.9492
RESOURCE	-11.9492
nom	-11.9494
ocal	-11.9494
▁Registry	-11.9495
▁Reserved	-11.9496
OB	-11.9499
Strong	-11.9499
nDi	-11.95
OO	-11.9501
00000002	-11.9502
▁Regression	-11.9502
larity	-11.9503
Registered	-11.9504
Percentage	-11.9504
Explore	-11.9504
tribute	-11.9506
▁OBJECT	-11.9506
▁violation	-11.9506
Envelope	-11.9507
abitat	-11.9508
▁disposal	-11.9512
Every	-11.9513
illy	-11.9519
▁Html	-11.9519
liver	-11.9521
hot	-11.9522
▁checkState	-11.9526
▁Shape	-11.9526
bot	-11.953
DESC	-11.953
surance	-11.953
▁tunnel	-11.9536
▁plat	-11.9536
Partial	-11.9537
▁INDEX	-11.9539
Mari	-11.954
ced	-11.9541
▁IAtom	-11.9541
Observation	-11.9541
arious	-11.9542
Fast	-11.9543
Updater	-11.9543
▁metr	-11.9544
SL	-11.9545
upp	-11.9547
▁Framework	-11.9547
meta	-11.9547
▁CP	-11.9549
Coordinator	-11.9549
▁requir	-11.955
Corner	-11.9552
▁clause	-11.9552
1-2	-11.9553
▁fromFile	-11.9555
Ack	-11.9555
▁Sheet	-11.9556
!!!!	-11.9556
▁Choice	-11.9557
cu	-11.9558
asi	-11.956
Minutes	-11.9561
your	-11.9561
▁Interval	-11.9562
Leader	-11.9562
nBoth	-11.9562
trol	-11.9563
▁promis	-11.9567
▁Article	-11.9567
▁StringPool	-11.9567
^2*	-11.9568
formation	-11.9568
▁Statistics	-11.9569
Serialized	-11.9569
▁Settings	-11.9569
Coord	-11.957
▁Processing	-11.9574
▁performer	-11.9574
▁ActiveMQ	-11.9577
▁AB	-11.9579
pics	-11.958
▁fut	-11.9581
Emergency	-11.9582
4/	-11.9583
▁alternate	-11.9585
POINT	-11.9585
Actor	-11.9585
▁yarn	-11.9585
▁sut	-11.9586
arded	-11.9587
ige	-11.9588
▁acknowledge	-11.9589
exica	-11.959
Deal	-11.9592
▁beta	-11.9592
CL	-11.9594
iler	-11.9595
Already	-11.9597
▁distribute	-11.9598
▁Linked	-11.9599
Capture	-11.96
▁128	-11.96
Quality	-11.9601
▁getMin	-11.9601
▁ab	-11.9602
Problem	-11.9604
▁destroyed	-11.9606
▁findFirst	-11.961
mission	-11.9613
EP	-11.9617
▁Members	-11.9619
▁Zi	-11.9621
ognitive	-11.9622
JSONObject	-11.9624
Nanos	-11.9625
Bi	-11.9626
]]	-11.9626
▁JAXBElement	-11.9627
full	-11.9627
Outcome	-11.9628
Convert	-11.9628
▁uni	-11.9629
mance	-11.9629
INFO	-11.9631
erg	-11.9634
struction	-11.9635
▁addAttribute	-11.9635
nj	-11.964
FF	-11.964
mapping	-11.9642
report	-11.9644
▁Literal	-11.9644
camel	-11.9644
/2019	-11.9645
anza	-11.9646
▁stops	-11.9647
▁Direction	-11.9647
2.0	-11.9648
▁OUT	-11.9649
▁Broker	-11.9649
nge	-11.965
▁Bloom	-11.9652
▁penalty	-11.9653
aws	-11.9653
▁Ext	-11.9653
▁Primary	-11.9654
Shift	-11.9654
Stamp	-11.9655
▁setVisible	-11.9657
ems	-11.9657
▁Validate	-11.9657
sea	-11.9658
???	-11.9659
▁iface	-11.9659
cure	-11.9662
bab	-11.9663
▁spill	-11.9665
▁IllegalAction	-11.9667
Install	-11.9669
▁encryption	-11.9669
acco	-11.9669
Connected	-11.967
▁CR	-11.9671
▁combining	-11.9671
TypeId	-11.9675
ulu	-11.9676
coa	-11.9677
AY	-11.9677
nually	-11.9678
▁Return	-11.9681
Green	-11.9681
▁UNKNOWN	-11.9685
FROM	-11.9686
oner	-11.9688
▁getInputStream	-11.9688
GE	-11.9689
▁CREATE	-11.9692
ApiClient	-11.9693
▁calculated	-11.9694
▁chrom	-11.9696
LA	-11.9696
SMS	-11.9698
▁grants	-11.9699
rial	-11.97
Care	-11.9701
▁Font	-11.9701
▁denied	-11.9701
Evaluation	-11.9702
Generated	-11.9704
▁pile	-11.9705
Hours	-11.9706
▁quest	-11.9706
Combo	-11.9708
▁Dead	-11.9709
serving	-11.9709
MLS	-11.9711
Race	-11.9711
dev	-11.9712
ObjectType	-11.9713
▁sca	-11.9714
tional	-11.9716
VP	-11.9718
▁tries	-11.972
BIT	-11.9721
orient	-11.9724
Trans	-11.9725
▁primaryKeys	-11.9726
▁sweep	-11.9726
lowing	-11.9727
▁reload	-11.973
uous	-11.9732
▁voters	-11.9734
byte	-11.9736
▁blocked	-11.9737
weat	-11.9738
▁Always	-11.974
cost	-11.974
oubles	-11.9741
DataException	-11.9742
there	-11.9743
▁manually	-11.9744
▁Widget	-11.9744
response	-11.9746
Experiment	-11.9747
▁FileInputStream	-11.9747
▁PATH	-11.9747
▁Dou	-11.975
fly	-11.9751
▁retro	-11.9751
ealth	-11.9752
Rename	-11.9752
▁tid	-11.9752
earl	-11.9754
merged	-11.9756
▁getSub	-11.9759
nDownload	-11.9759
▁Shar	-11.9761
▁clientId	-11.9762
intention	-11.9764
apa	-11.9764
param	-11.9766
Mailbox	-11.9767
styles	-11.9767
Apply	-11.9768
▁observation	-11.9768
lete	-11.9768
▁floating	-11.9769
▁disconnect	-11.977
▁Ranger	-11.9771
▁Schedule	-11.9772
▁slots	-11.9775
aria	-11.9775
▁Matrix	-11.9777
▁needle	-11.9777
ptic	-11.978
Assign	-11.978
▁Comment	-11.9782
nishing	-11.9785
cro	-11.9786
▁rename	-11.9787
▁rolled	-11.9788
▁Pipeline	-11.9789
▁InvalidProtocol	-11.979
PARAM	-11.979
DescriptorImpl	-11.9796
▁Oracle	-11.9799
Revision	-11.98
stle	-11.98
nor	-11.9801
▁Ada	-11.9801
▁bloom	-11.9804
▁finderCache	-11.9806
▁Db	-11.9807
grants	-11.9808
▁getRecord	-11.9809
HEADER	-11.9809
▁doTest	-11.981
▁writeString	-11.9813
1.1	-11.9813
nett	-11.9815
EA	-11.9818
roller	-11.9819
Protos	-11.982
▁testCase	-11.982
serves	-11.9821
▁density	-11.9822
▁Hash	-11.9823
Procedure	-11.9825
zing	-11.9826
▁recommendation	-11.983
Captor	-11.983
Nullable	-11.9831
▁executed	-11.9831
SF	-11.9832
RequestBuilder	-11.9833
[]	-11.9833
ggy	-11.9835
stan	-11.9835
▁Jobs	-11.9837
▁globally	-11.984
osh	-11.9843
rine	-11.9843
▁dict	-11.9844
▁THIS	-11.9845
RequestContext	-11.9845
▁Score	-11.9845
Country	-11.9846
ders	-11.9847
=1	-11.9848
▁Weight	-11.985
▁analyse	-11.9851
▁Jet	-11.9854
reeze	-11.9856
Expressions	-11.9857
scribed	-11.9858
▁Owner	-11.9859
▁favorites	-11.9861
▁macro	-11.9862
▁setData	-11.9862
ssan	-11.9862
matically	-11.9862
partition	-11.9864
build	-11.9865
▁";	-11.9866
rp	-11.9867
hm	-11.987
▁'.'	-11.987
esses	-11.9871
NOW	-11.9873
Serde	-11.9874
▁consum	-11.9877
▁nomin	-11.9878
trap	-11.9882
hila	-11.9882
▁Clinic	-11.9883
Inspir	-11.9885
integral	-11.9885
lone	-11.9885
Containing	-11.9886
ettle	-11.9886
sheets	-11.989
Retrieve	-11.989
BQ	-11.9891
write	-11.9892
▁dot	-11.9897
CONF	-11.99
▁dri	-11.99
Comp	-11.99
▁ifPresent	-11.9902
▁brows	-11.9902
▁uncom	-11.9902
nRa	-11.9903
AO	-11.9905
▁Ip	-11.9908
▁Author	-11.9909
Minimum	-11.991
llows	-11.991
2010	-11.991
chet	-11.9912
Arr	-11.9913
▁rocks	-11.9914
Encoded	-11.9918
▁jersey	-11.9921
nto	-11.9922
ARL	-11.9923
▁kv	-11.9923
bran	-11.9923
grid	-11.9924
▁OP	-11.9924
▁declare	-11.9925
ddings	-11.9931
Alignment	-11.9931
▁Directory	-11.9934
0-	-11.9941
cloud	-11.9943
▁TIMESTAMP	-11.9951
enabled	-11.9952
▁57	-11.9953
▁silent	-11.9955
▁IO	-11.9955
cS	-11.9958
▁oz	-11.9959
Hidden	-11.9961
jack	-11.9961
OD	-11.9963
▁KeyValue	-11.9964
GP	-11.9964
omo	-11.9965
PublicKey	-11.9966
building	-11.9967
▁Templ	-11.9967
▁Subject	-11.9969
certainty	-11.997
TestCase	-11.9971
gml	-11.9972
▁Paths	-11.9972
PD	-11.9973
Dispatch	-11.9975
Great	-11.9976
osc	-11.9978
▁NumberFormat	-11.9983
▁corresponding	-11.9983
▁Dam	-11.9983
▁containsExactly	-11.9985
wiki	-11.9985
Binder	-11.9985
▁getWidth	-11.9986
Play	-11.9989
isp	-11.9989
Modify	-11.9991
Cap	-11.9992
▁relay	-11.9992
▁syn	-11.9995
▁OH	-11.9997
course	-11.9998
NOTE	-11.9999
▁bounds	-11.9999
▁setBody	-12.0006
Blood	-12.0006
OM	-12.0006
▁Alert	-12.0007
THAN	-12.0008
▁updating	-12.0009
10.	-12.0011
▁Struct	-12.0012
iles	-12.0012
ega	-12.0014
Statistic	-12.0015
leading	-12.0018
▁59	-12.0021
Successful	-12.0023
Indexed	-12.0024
▁transcript	-12.0025
route	-12.0026
▁Converter	-12.003
▁acceptable	-12.0032
▁rnd	-12.0033
gal	-12.0033
▁discharge	-12.0033
▁MySql	-12.0035
10,	-12.0036
Photo	-12.0036
propri	-12.0038
▁bun	-12.0038
▁screens	-12.0038
help	-12.0039
▁HttpClient	-12.0039
▁dismiss	-12.0043
Bel	-12.0044
Demo	-12.0044
▁Blob	-12.0044
rea	-12.0045
Decl	-12.0046
IDS	-12.0049
▁clay	-12.0051
▁experimental	-12.0051
inum	-12.0054
alk	-12.0055
▁tc	-12.0057
▁httpClient	-12.0059
Different	-12.006
reign	-12.0061
Room	-12.0063
▁getNew	-12.0064
▁Organi	-12.0066
country	-12.0066
▁unwrap	-12.0069
ramp	-12.007
istics	-12.007
MessageIndex	-12.007
vie	-12.0075
▁getCluster	-12.0075
▁interpret	-12.0075
ELL	-12.0076
Google	-12.0076
eria	-12.0076
▁getY	-12.0077
Tiger	-12.0077
▁writeTo	-12.0078
Therapy	-12.0079
▁Delivery	-12.008
utable	-12.008
_1_	-12.0082
▁ATTR	-12.0084
Suite	-12.0084
amo	-12.0084
aying	-12.0089
Expand	-12.009
▁SWT	-12.0092
Representative	-12.0094
▁arc	-12.0095
▁servlet	-12.0096
Notify	-12.0096
avor	-12.0096
tely	-12.0098
Encryption	-12.0103
Track	-12.0104
Study	-12.0105
▁getT	-12.0106
▁testAdd	-12.0108
UD	-12.0109
▁Redis	-12.0112
▁bla	-12.0113
NAMESPACE	-12.0116
▁rotation	-12.0116
Preview	-12.0117
▁palette	-12.0117
rol	-12.0117
▁alignment	-12.0117
▁Apply	-12.0119
Transformation	-12.0123
▁deni	-12.0126
opa	-12.0126
egis	-12.0127
namespace	-12.0131
Patch	-12.0133
▁Solution	-12.0136
Th	-12.0136
Merc	-12.0137
agne	-12.0137
rene	-12.0139
▁objectMapper	-12.014
RegistryLite	-12.0142
exception	-12.0143
3/4	-12.0143
▁"0	-12.0146
Salt	-12.0147
▁unregister	-12.0149
etti	-12.0149
▁REAL	-12.0149
▁consecutive	-12.0152
called	-12.0152
▁AWS	-12.0152
▁getRaw	-12.0155
Elem	-12.0159
▁Socket	-12.0159
0000	-12.016
▁fileClient	-12.0165
▁codec	-12.0167
▁nano	-12.0167
Invoker	-12.0167
▁GO	-12.0168
▁deny	-12.0168
NT	-12.017
▁Rod	-12.0171
chem	-12.0172
HttpClient	-12.0173
▁Slice	-12.0174
nMe	-12.0176
▁restricted	-12.018
tus	-12.018
Conflict	-12.018
▁Fore	-12.018
nity	-12.018
som	-12.0181
▁transit	-12.0182
Drive	-12.0182
Restart	-12.0182
Classpath	-12.0183
▁fu	-12.0184
▁IF	-12.0185
Operand	-12.0187
▁adjusted	-12.0189
Delimiter	-12.0189
▁Verify	-12.019
▁orient	-12.0193
Persistent	-12.0194
▁failing	-12.0194
▁Drop	-12.0195
▁Agreement	-12.0196
Migration	-12.0199
▁airavata	-12.0199
▁FF	-12.02
▁decorate	-12.0201
▁Events	-12.0202
▁connectivity	-12.0203
ribe	-12.0205
nOr	-12.0206
▁Wait	-12.0208
eclipse	-12.0211
▁decimal	-12.0211
▁highlighted	-12.0212
bay	-12.0213
CacheEntry	-12.0214
Loc	-12.0215
ifted	-12.0219
necessary	-12.022
NG	-12.0223
▁Compare	-12.0223
ounce	-12.0225
Initialization	-12.0227
▁True	-12.0228
bitField	-12.0229
Coupon	-12.0229
▁batt	-12.0229
▁inclusion	-12.0232
▁63	-12.0232
mod	-12.0232
▁organizer	-12.0233
indi	-12.0233
▁neo	-12.0234
▁Trip	-12.0235
big	-12.0236
▁modification	-12.0236
Histogram	-12.0236
\"}	-12.0238
Zip	-12.0241
▁flowFile	-12.0243
▁Parameters	-12.0243
▁Tok	-12.0252
▁atomic	-12.0255
StatusCode	-12.0256
mount	-12.0258
DataStore	-12.0258
Mid	-12.0258
aq	-12.0259
▁fired	-12.0261
▁SD	-12.0264
tests	-12.0264
chat	-12.0264
connection	-12.0265
Dan	-12.0265
Executable	-12.0266
ulation	-12.0266
rik	-12.0272
___	-12.0273
Age	-12.0274
▁accessed	-12.0274
▁writeObject	-12.0276
▁Pic	-12.0276
▁disp	-12.0276
Nev	-12.0278
▁Aggregation	-12.0282
▁Lead	-12.0282
▁refin	-12.0285
reference	-12.0286
▁Sem	-12.0286
▁Worker	-12.0287
((	-12.0289
▁Physical	-12.0295
THE	-12.0296
▁merchant	-12.0296
BL	-12.0296
Band	-12.0301
logy	-12.0302
▁Signature	-12.0304
▁peers	-12.0305
entur	-12.0308
▁pres	-12.0308
ygen	-12.0309
Connections	-12.0311
cC	-12.0315
expected	-12.0316
izable	-12.0317
okes	-12.0318
▁bu	-12.0319
total	-12.0321
urround	-12.0321
▁voucher	-12.0322
▁optimization	-12.0323
▁Namespace	-12.0323
Interactions	-12.0324
▁cred	-12.0325
Datatype	-12.0326
tom	-12.0326
denti	-12.0328
▁addParameter	-12.0328
abb	-12.0332
storm	-12.0332
OFFSET	-12.0332
▁Adve	-12.0334
Medium	-12.0337
module	-12.0338
▁Auth	-12.0339
rego	-12.0339
▁Touch	-12.0341
ACTION	-12.0341
Adjust	-12.0342
▁blocking	-12.0342
park	-12.0343
▁parameterName	-12.0344
].	-12.0344
ANT	-12.0344
creational	-12.0345
ialogue	-12.0346
andra	-12.0346
ulin	-12.0349
▁01	-12.0349
rous	-12.0351
tie	-12.0351
▁EnumSet	-12.0353
▁LocalDateTime	-12.0355
▁rebuild	-12.0358
kk	-12.0362
▁Draw	-12.0363
oda	-12.0363
Death	-12.0363
riving	-12.0364
adder	-12.0364
▁Bond	-12.0365
▁Federation	-12.0365
▁computing	-12.0366
▁Sym	-12.0366
▁indicat	-12.0366
gle	-12.0367
Soft	-12.0368
▁offline	-12.0368
Dump	-12.0369
CG	-12.0369
▁Pdf	-12.0374
Provided	-12.0374
ServiceException	-12.0376
▁tm	-12.0378
mu	-12.038
tsu	-12.0382
▁Chem	-12.0383
auto	-12.0383
attribute	-12.0384
_2_0	-12.0384
cence	-12.0385
▁IAtomContainer	-12.0387
▁gal	-12.0388
Dim	-12.0389
▁getHeight	-12.0389
FI	-12.0391
share	-12.0391
▁Too	-12.0392
ELEMENT	-12.0393
▁CLASS	-12.0394
Candidates	-12.0398
gus	-12.0398
Cas	-12.0399
▁Rio	-12.0401
▁Current	-12.0405
TypeRef	-12.0406
Escape	-12.0406
POST	-12.0408
then	-12.0409
NI	-12.041
▁httpRequest	-12.041
▁Charset	-12.0412
IllegalAccess	-12.0412
unctu	-12.0413
soft	-12.0413
Privilege	-12.0413
ells	-12.0414
▁blo	-12.0417
▁boundaries	-12.0419
IVE	-12.042
▁Less	-12.0423
Recovery	-12.0423
gre	-12.0423
quo	-12.0424
VersionId	-12.0424
▁LOCAL	-12.0424
ffer	-12.0426
sche	-12.0429
binar	-12.0431
movable	-12.0432
▁alpha	-12.0432
▁retval	-12.0433
▁Logical	-12.0434
nZ	-12.0436
360	-12.0436
▁contribut	-12.0436
lished	-12.0442
▁BeforeClass	-12.0442
Low	-12.0446
Chef	-12.0447
py	-12.0447
▁confidential	-12.0448
Factories	-12.0449
Tables	-12.0449
▁eventType	-12.0452
▁CI	-12.0452
▁queryString	-12.0456
▁StringWriter	-12.0456
▁Alternative	-12.0457
1.2	-12.0457
▁QUERY	-12.0457
▁cre	-12.0459
Wide	-12.0459
Generation	-12.046
alpha	-12.0461
▁CAN	-12.0461
▁prim	-12.0462
Charge	-12.0463
tool	-12.0465
Loan	-12.0468
PrimaryKey	-12.0469
▁arrow	-12.047
lom	-12.047
too	-12.0472
username	-12.0477
▁EX	-12.048
▁isDirectory	-12.0482
Dis	-12.0485
pension	-12.0488
tors	-12.049
gating	-12.049
▁eclipse	-12.0492
ometer	-12.0493
Validate	-12.0493
pted	-12.0494
IndentedString	-12.0495
▁interfaces	-12.0496
Avoid	-12.0496
MF	-12.0498
Tail	-12.0499
ographical	-12.05
Intel	-12.0501
▁getNumberOf	-12.0503
Steps	-12.0506
▁getHeaders	-12.0508
GeneratedMessage	-12.051
▁fatal	-12.0513
LEVEL	-12.0517
Watermark	-12.0519
complexity	-12.052
▁tablets	-12.0521
▁dont	-12.0525
rop	-12.0527
▁Concrete	-12.0527
▁getRight	-12.0527
eye	-12.0528
INSERT	-12.0531
Turn	-12.0531
▁setUser	-12.0534
netSocketAddress	-12.0534
▁getOrCreate	-12.0535
Life	-12.0537
.25	-12.0541
agent	-12.0542
ores	-12.0542
igen	-12.0543
Such	-12.0547
▁Zip	-12.0548
balanced	-12.0548
▁mobil	-12.0549
Sets	-12.0551
▁grap	-12.0552
hin	-12.0552
mis	-12.0554
HV	-12.0555
executionContext	-12.0556
▁Swit	-12.0556
Skin	-12.0558
▁SimpleFeature	-12.056
▁Lookup	-12.0561
PROP	-12.0562
▁Ana	-12.0564
player	-12.0564
TI	-12.0564
▁quantit	-12.0564
lug	-12.0569
quisite	-12.0571
ADMIN	-12.0571
Speak	-12.0572
▁CE	-12.0572
apple	-12.0572
cry	-12.0573
dler	-12.0573
tations	-12.0575
▁AssertionError	-12.0575
▁Arch	-12.0577
spread	-12.0579
scan	-12.058
ction	-12.0583
singletonMap	-12.0584
nnes	-12.0586
▁dro	-12.0587
▁multiply	-12.0588
▁redis	-12.0589
wal	-12.059
Episode	-12.059
scapes	-12.0592
▁Analytics	-12.0593
▁thumb	-12.0594
hra	-12.0596
▁localName	-12.0597
▁tier	-12.0599
Week	-12.06
▁Mol	-12.0602
▁Sleep	-12.0602
▁pid	-12.0604
AI	-12.0605
▁Zo	-12.0606
▁Tools	-12.0607
Anonymous	-12.0607
▁Phase	-12.0608
▁Camera	-12.0609
▁Fixed	-12.0609
Outbound	-12.061
▁colla	-12.0611
ampa	-12.0614
eval	-12.0614
▁locks	-12.0615
sCount	-12.0616
2.5	-12.0616
Require	-12.0616
▁invit	-12.0619
Balance	-12.0619
▁mg	-12.062
inda	-12.0621
UT	-12.0621
llo	-12.0624
▁Foreign	-12.0625
oes	-12.0629
abri	-12.0629
DefaultInstance	-12.0629
HashMap	-12.0629
Game	-12.0633
aved	-12.0636
▁hel	-12.0637
▁pickup	-12.0637
FACTORY	-12.0638
ServiceImpl	-12.0639
.50	-12.0639
ALIAS	-12.0639
▁SAXException	-12.0641
Serializable	-12.0642
Moving	-12.0643
erman	-12.0643
eased	-12.0643
▁700	-12.0646
▁Portlet	-12.0646
▁adjacent	-12.0647
uit	-12.0648
Ka	-12.065
rad	-12.065
▁CON	-12.0652
▁classified	-12.0654
▁writeLong	-12.0655
uuid	-12.0657
▁Empty	-12.0662
ObjectInspector	-12.0667
mg	-12.0668
production	-12.067
▁addCriterion	-12.067
disrupt	-12.067
hickness	-12.0674
Reg	-12.0676
banana	-12.0676
utual	-12.0677
perate	-12.0678
Rank	-12.0679
▁incorrect	-12.068
estin	-12.0681
▁restrict	-12.0683
ENABLED	-12.0686
Presenter	-12.0687
Sc	-12.0688
Mobile	-12.0689
gri	-12.0691
HttpRequest	-12.0692
auth	-12.0693
▁solving	-12.0699
▁Arc	-12.0701
paired	-12.0706
▁Timer	-12.0706
▁testSet	-12.0708
Persist	-12.0708
nde	-12.0709
saw	-12.0715
eeze	-12.0717
Seven	-12.0718
▁Hin	-12.0719
▁addComponent	-12.0721
ference	-12.0724
Expiration	-12.0725
▁arti	-12.0727
emption	-12.0728
▁rat	-12.0729
▁beginn	-12.0733
include	-12.0735
▁prov	-12.0735
REFERENCE	-12.0737
▁timeline	-12.0737
▁Ground	-12.0738
Later	-12.0742
Decision	-12.0742
▁newHashSet	-12.0743
oldi	-12.0744
▁QueryParam	-12.0746
Sources	-12.0747
FieldValue	-12.0748
▁toJson	-12.0748
Clock	-12.0749
orch	-12.0751
elled	-12.0751
▁67	-12.0753
IST	-12.0753
quar	-12.0759
▁Soap	-12.0759
Semi	-12.076
▁Asset	-12.0762
pho	-12.0767
▁camelContext	-12.0769
collection	-12.0771
Reverse	-12.0772
ComboBox	-12.0773
▁physi	-12.0775
Plot	-12.0776
join	-12.0777
Chars	-12.0778
▁codegen	-12.0778
Certification	-12.0779
▁suspended	-12.078
Durable	-12.0781
Quick	-12.0782
Po	-12.0783
▁dm	-12.0784
short	-12.0789
[(	-12.0791
EUR	-12.0794
▁NE	-12.0797
▁TProtocol	-12.0798
ato	-12.0798
▁Bul	-12.0799
Union	-12.0801
wanted	-12.0805
petitions	-12.0808
empty	-12.081
▁scra	-12.0811
jdbc	-12.0811
▁HA	-12.0814
Resolve	-12.0814
▁readLine	-12.0814
Ma	-12.0815
Stroke	-12.0817
ope	-12.0817
UK	-12.082
▁Hel	-12.0821
▁supervisor	-12.0821
nate	-12.0823
▁Primitive	-12.0825
▁formats	-12.0825
▁cop	-12.0826
Charset	-12.0827
▁userAgent	-12.0831
▁Got	-12.0833
temp	-12.0835
▁fuse	-12.0836
▁Billing	-12.0838
▁getDouble	-12.0838
Maximum	-12.084
▁elementName	-12.0842
rque	-12.0843
▁mailing	-12.0843
Signed	-12.0844
▁upgraded	-12.0844
▁VR	-12.0844
else	-12.0845
▁isNotBlank	-12.0846
▁freez	-12.0847
PRO	-12.0851
SimpleDateFormat	-12.0851
▁Load	-12.0851
▁Amaz	-12.0855
▁bonds	-12.0856
▁detected	-12.0859
▁Mirror	-12.086
▁Ep	-12.0862
▁indexes	-12.0863
MN	-12.0864
▁ArrayUtil	-12.0865
2011	-12.0866
Maybe	-12.0867
▁adapted	-12.0869
▁hell	-12.0871
Calculator	-12.0871
olitician	-12.0871
▁Interface	-12.0872
▁Triple	-12.0872
▁getFunction	-12.0874
ExecutorService	-12.0876
cessive	-12.0878
ggle	-12.0878
EntityType	-12.0882
closed	-12.0883
lev	-12.0884
▁Emb	-12.0884
artial	-12.0887
ERS	-12.0888
ieving	-12.0888
▁3000	-12.0889
▁addItem	-12.0889
Cat	-12.089
Recursive	-12.0891
▁obligation	-12.0891
seller	-12.0893
▁fieldType	-12.0894
ination	-12.0895
LL	-12.0895
ONLY	-12.0896
Camel	-12.0898
Configured	-12.0899
En	-12.0899
yyyy	-12.09
troi	-12.09
Expired	-12.09
nti	-12.0901
payer	-12.0903
▁Rate	-12.0904
Invoice	-12.091
umor	-12.0911
fib	-12.0912
▁linear	-12.0913
nstitution	-12.0914
▁getMockEndpoint	-12.0915
brick	-12.0915
▁getPayload	-12.0916
▁decl	-12.0917
Forge	-12.0921
▁structured	-12.0921
lative	-12.0921
▁offic	-12.0922
Machine	-12.0924
▁Rep	-12.0925
▁KV	-12.0927
▁Plain	-12.0927
Tester	-12.0929
vc	-12.0935
mile	-12.0935
quit	-12.0935
▁Sync	-12.0935
▁Eve	-12.0938
▁Discount	-12.0942
CRS	-12.0943
▁composer	-12.0944
Alarm	-12.0945
▁Flag	-12.0947
Checksum	-12.0947
▁Degree	-12.0947
OrderBy	-12.0948
None	-12.0949
rf	-12.0953
Battle	-12.0956
▁enqueue	-12.0957
▁recycle	-12.0958
stance	-12.0958
8-	-12.0959
astes	-12.096
nBo	-12.096
CheckedException	-12.096
▁verified	-12.0961
leans	-12.0963
QueryResult	-12.0963
▁retention	-12.0964
▁greet	-12.0966
▁deca	-12.0967
▁CV	-12.097
▁62	-12.0971
▁Train	-12.0971
GO	-12.0972
▁getDescriptor	-12.0975
usage	-12.0976
▁hello	-12.0976
▁Delta	-12.098
hedral	-12.098
▁resi	-12.098
Ranges	-12.0981
▁sui	-12.0982
▁suggestion	-12.0982
▁pred	-12.0982
();	-12.0984
aff	-12.0985
NP	-12.0987
Cal	-12.0992
igation	-12.0992
128	-12.0994
Place	-12.0996
▁Poll	-12.0997
AGE	-12.0997
LocalServiceUtil	-12.1
▁encrypted	-12.1001
▁PCollection	-12.1001
▁dependencies	-12.1003
ä	-12.1003
pop	-12.1005
Keywords	-12.1006
▁bookmark	-12.1008
▁NAMESPACE	-12.1009
arra	-12.1009
:45	-12.1011
▁TAG	-12.1012
DD	-12.1012
▁comparing	-12.1015
inal	-12.1016
▁DS	-12.1018
bine	-12.1018
▁sessionId	-12.1019
000000	-12.1019
▁Dep	-12.1019
rmo	-12.102
Manifest	-12.1021
▁Pot	-12.1023
LT	-12.1024
▁PARAM	-12.1026
▁Cub	-12.1028
▁Plastic	-12.1029
▁Unique	-12.1032
Must	-12.1033
▁WH	-12.1033
Alice	-12.1035
▁FS	-12.1035
Translation	-12.1036
erri	-12.1038
chic	-12.104
▁Eva	-12.104
Rec	-12.1042
Electr	-12.1044
▁regre	-12.1044
▁permits	-12.1044
▁Greater	-12.1045
▁interrupt	-12.1045
▁Constant	-12.1048
▁61	-12.1051
errain	-12.1053
▁Caf	-12.1054
moderate	-12.1054
ledge	-12.1054
▁fieldValue	-12.1056
▁hood	-12.1056
eared	-12.1057
▁und	-12.1059
▁rejected	-12.1061
310	-12.1063
▁setContent	-12.1064
▁getFields	-12.1064
▁Cho	-12.1066
▁deployed	-12.1068
Minute	-12.1068
▁expressions	-12.107
-17	-12.1071
▁dash	-12.1073
▁custo	-12.1073
alla	-12.1073
xamination	-12.1073
secret	-12.1075
▁Df	-12.1075
MBean	-12.1076
usal	-12.1076
Break	-12.1078
▁Whi	-12.1079
oto	-12.1079
▁blockchain	-12.1079
198	-12.1083
▁VI	-12.1084
▁columnNames	-12.1087
▁readObject	-12.1087
▁starter	-12.1088
▁enrollment	-12.109
▁Doc	-12.109
halt	-12.1091
xFF	-12.1092
▁ADD	-12.1092
Border	-12.1093
Expect	-12.1095
▁fri	-12.1095
▁mul	-12.1096
▁injector	-12.1099
PASSWORD	-12.1099
PROPERTIES	-12.11
het	-12.1101
porting	-12.111
dder	-12.1112
▁isEqual	-12.1115
rawtypes	-12.1117
Logic	-12.112
msg	-12.1123
▁Coded	-12.1123
▁primaryKey	-12.1123
amel	-12.1124
▁allocation	-12.1124
grams	-12.1125
azelcastInstance	-12.1126
▁RULE	-12.1128
▁ka	-12.1129
rav	-12.113
COMPONENT	-12.113
▁orchestra	-12.1131
Vo	-12.1132
float	-12.1135
▁900	-12.1135
▁"10	-12.1136
▁110	-12.1137
nVisit	-12.1137
sync	-12.1138
▁messaging	-12.114
▁addChild	-12.1141
Func	-12.1141
PLAIN	-12.1143
cur	-12.1143
wire	-12.1143
▁CF	-12.1146
EF	-12.1146
Bin	-12.1148
pants	-12.1148
Budd	-12.115
▁assertNotEquals	-12.115
Mac	-12.115
chore	-12.1151
nBa	-12.1151
▁createStatement	-12.1152
Tools	-12.1158
lk	-12.1159
char	-12.116
ourcing	-12.1163
▁boundary	-12.1163
ords	-12.1164
ENTRY	-12.1165
▁groupBy	-12.1165
▁Prior	-12.1166
▁getView	-12.1167
MAN	-12.1167
ç	-12.1169
Pay	-12.1171
tention	-12.1171
▁RESOURCE	-12.1172
Got	-12.1172
Stick	-12.1174
eta	-12.1176
Console	-12.1177
▁executeUpdate	-12.1177
▁CS	-12.1177
▁Independent	-12.1177
▁clusterName	-12.1181
▁quad	-12.1181
rig	-12.1182
Rep	-12.1184
Exit	-12.1186
Grow	-12.1187
cob	-12.1187
▁contacts	-12.1189
▁Transformer	-12.1192
▁Iterables	-12.1193
▁58	-12.1194
▁Ker	-12.1195
▁Hit	-12.1196
xff	-12.1197
Mutable	-12.1197
mode	-12.1197
Mutation	-12.1198
nounce	-12.1199
Cardinality	-12.1199
quarter	-12.1199
▁actionRequest	-12.1199
igator	-12.1199
cM	-12.12
Hints	-12.1201
cases	-12.1202
rages	-12.1202
▁pointer	-12.1202
▁Individual	-12.1204
▁Focus	-12.1206
Beyond	-12.1207
pressed	-12.1212
mini	-12.1214
Mega	-12.1214
▁translated	-12.1217
▁gloss	-12.1217
▁Visual	-12.1218
nThen	-12.1219
cession	-12.122
Compile	-12.1221
JsonUnmarshaller	-12.1221
▁volumes	-12.1223
▁cancelled	-12.1224
▁Ran	-12.1226
INTERVAL	-12.1227
Har	-12.1227
plane	-12.123
oka	-12.1232
▁getLocale	-12.1232
▁invent	-12.1236
memor	-12.1237
▁Clo	-12.1239
▁mut	-12.124
▁getN	-12.124
▁longest	-12.1241
1.5	-12.1243
▁userGroup	-12.1245
nament	-12.1246
▁Mak	-12.1247
holes	-12.1248
▁rot	-12.1248
races	-12.1251
▁branding	-12.1251
ServiceName	-12.1253
▁dt	-12.1253
▁Problem	-12.1255
▁getPlayer	-12.1256
▁Tan	-12.1257
▁Dublin	-12.1259
Throwable	-12.126
Vm	-12.1261
Individual	-12.1261
Codes	-12.1262
illi	-12.1263
timestamp	-12.1266
Kit	-12.1266
▁addAtom	-12.1267
Micro	-12.1268
Violation	-12.1268
▁expectedResult	-12.1269
▁coordinates	-12.127
(1	-12.1274
▁PI	-12.1276
▁priorities	-12.1276
▁Arg	-12.1277
▁Aut	-12.1277
WC	-12.1278
button	-12.1279
held	-12.128
▁getExecution	-12.1282
▁identical	-12.1283
▁emptySet	-12.1288
idge	-12.1289
icked	-12.129
tray	-12.129
Streams	-12.129
quire	-12.1291
▁crea	-12.1295
jaxRequestTarget	-12.1296
▁intensity	-12.1297
▁instanceId	-12.1297
▁InetAddress	-12.1297
▁alerts	-12.1297
Verify	-12.1299
▁getO	-12.1299
ignificance	-12.13
▁ET	-12.1302
▁Fill	-12.1304
▁iterable	-12.1306
Linked	-12.1307
▁getPassword	-12.1308
Vars	-12.1309
▁PO	-12.1309
MATCH	-12.131
ombie	-12.131
▁cpDefinition	-12.131
▁IV	-12.1312
chu	-12.1313
▁1.2	-12.1313
▁ph	-12.1314
SUCCESS	-12.1316
ctures	-12.1317
Hand	-12.1317
Products	-12.132
▁getArguments	-12.132
-14	-12.132
Colour	-12.1321
▁Example	-12.1323
▁FULL	-12.1323
▁Imag	-12.1324
▁sf	-12.1324
▁generating	-12.1324
▁getAs	-12.1325
▁getStyle	-12.1325
father	-12.133
▁getChannel	-12.133
Creating	-12.1331
luc	-12.1332
AVE	-12.1333
nTr	-12.1335
tenant	-12.1335
▁78	-12.1336
▁Bulk	-12.1336
layer	-12.1337
Tick	-12.1338
allow	-12.1339
5.5	-12.1341
nJa	-12.1341
▁pools	-12.1342
eparation	-12.1342
Patterns	-12.1343
▁Kal	-12.1343
▁pw	-12.1343
izes	-12.1345
Normal	-12.1348
MIN	-12.1352
Mouse	-12.1352
union	-12.1353
foli	-12.1353
à	-12.1355
fy	-12.1355
▁merc	-12.136
Defined	-12.1361
▁findElement	-12.1361
▁quoted	-12.1362
ett	-12.1362
▁coding	-12.1363
kie	-12.1364
Above	-12.1364
nUnder	-12.1364
brand	-12.1368
▁Que	-12.1368
^2)	-12.1368
tions	-12.1369
▁correction	-12.1372
▁ldap	-12.1372
eman	-12.1374
▁Translation	-12.1374
TON	-12.1375
960	-12.1376
▁Cassandra	-12.1377
▁UPDATE	-12.1379
▁Third	-12.138
▁findByC	-12.1383
clu	-12.1385
▁ele	-12.1386
iment	-12.1387
rell	-12.1387
mbr	-12.1389
USA	-12.1389
▁REQUEST	-12.139
▁perm	-12.1394
FORM	-12.1397
▁vertx	-12.1398
Lang	-12.1399
▁princ	-12.1399
▁getTag	-12.1399
▁elect	-12.1399
▁DAY	-12.14
Pid	-12.14
three	-12.1401
riti	-12.1402
▁Cli	-12.1404
aca	-12.1404
rimes	-12.1405
natural	-12.1405
▁Monitor	-12.1405
vro	-12.1407
1.6	-12.1408
▁Discover	-12.1408
▁Coun	-12.1408
▁Unc	-12.1408
Hour	-12.1409
▁Decorat	-12.1411
_2_	-12.1412
▁Solid	-12.1413
▁notified	-12.1414
▁Circle	-12.1414
opho	-12.1416
MessageCount	-12.1417
Recipient	-12.1419
▁Mongo	-12.142
▁ke	-12.1421
▁Located	-12.1421
▁190	-12.1422
verages	-12.1426
erk	-12.1428
▁Bet	-12.1428
▁exporter	-12.1428
ushes	-12.1429
▁HS	-12.1432
TEMPLATE	-12.1433
tang	-12.1434
callback	-12.1435
▁97	-12.1436
▁Features	-12.1438
▁OFF	-12.1438
remove	-12.1439
wei	-12.1439
->	-12.1443
▁scatter	-12.1444
isorder	-12.1447
Integration	-12.1448
\">	-12.1449
pain	-12.1451
gregation	-12.1451
alents	-12.1453
▁verification	-12.1456
120	-12.1456
▁depot	-12.1458
▁primitive	-12.1459
dri	-12.1461
exit	-12.1461
▁GM	-12.1463
LoadBalancer	-12.1464
▁BeforeEach	-12.1465
oshi	-12.1466
▁Chain	-12.1469
▁PrintWriter	-12.1469
FieldType	-12.1473
Multimap	-12.1473
Documentation	-12.1473
ionships	-12.1474
FileOutputStream	-12.1474
ditionally	-12.1478
▁Dependency	-12.1479
▁STATE	-12.148
greed	-12.1481
▁orientation	-12.1482
iological	-12.1484
Excel	-12.1484
▁Glo	-12.1485
ndered	-12.1486
DisplayName	-12.1487
▁optimis	-12.1489
▁attempting	-12.149
Ba	-12.1491
Ram	-12.1493
▁readString	-12.1493
▁Utils	-12.1494
Dom	-12.1496
▁CB	-12.1498
▁NODE	-12.1498
Popup	-12.15
Streaming	-12.1503
▁FIRST	-12.1505
/10	-12.1505
▁Results	-12.1505
success	-12.1506
▁EntityManager	-12.1506
IOException	-12.1506
▁Orient	-12.1507
Cyber	-12.1507
▁Tel	-12.1508
▁Universal	-12.1508
cally	-12.151
LABEL	-12.1512
▁GB	-12.1512
▁Period	-12.1512
[...]
